#include "et_weights.h"
#define ET_LANG1_WEIGHTS_BUF_LEN    104995
const static char et_lang1_weights_buf[104995] = 
{
0x26, 0x2D, 0x0E, 0x00, 0x04, 0x02, 0xA0, 0x8A, 0xD7, 0x31, 0x45, 0x1F, 0x15, 0x3B, 0x36, 0x0E, 
0x21, 0x1C, 0xFD, 0xE4, 0xD9, 0xDC, 0xCB, 0xD1, 0x1E, 0x0C, 0xE7, 0x0A, 0xEB, 0xE0, 0x02, 0xE3, 
0x08, 0xEF, 0xEC, 0x19, 0xE5, 0xC7, 0xC4, 0xF4, 0xDD, 0xE3, 0x03, 0x11, 0x23, 0x21, 0x4B, 0x37, 
0x04, 0x09, 0xEC, 0xDB, 0x35, 0xF0, 0xC7, 0x50, 0xF3, 0xD3, 0x38, 0xF9, 0x05, 0x02, 0xE5, 0x27, 
0x15, 0xFD, 0x17, 0xFD, 0x00, 0x02, 0xE1, 0x09, 0xE9, 0xEC, 0x14, 0xF0, 0x14, 0x1E, 0xFE, 0x19, 
0xF7, 0x12, 0x1D, 0xF1, 0xFB, 0x0A, 0xFC, 0xF2, 0xE8, 0x23, 0xF1, 0xD5, 0x41, 0xEF, 0xDE, 0x3B, 
0x0A, 0x05, 0xCF, 0xFD, 0xFE, 0x42, 0x2F, 0x04, 0x05, 0x02, 0x01, 0x07, 0x00, 0xFE, 0x06, 0xFD, 
0xFB, 0x00, 0x00, 0x01, 0xF7, 0xFE, 0x06, 0xF7, 0xF6, 0x03, 0x01, 0x04, 0x01, 0xFA, 0xFD, 0xFC, 
0xF5, 0xFA, 0xFB, 0x00, 0x02, 0x02, 0x08, 0x06, 0x00, 0x0A, 0x09, 0xFD, 0xFF, 0xFE, 0x03, 0x05, 
0x18, 0x11, 0x07, 0x20, 0x12, 0x02, 0x13, 0x14, 0x0C, 0x0C, 0x09, 0x0B, 0xFB, 0xFB, 0x00, 0xF7, 
0x02, 0x04, 0x02, 0x05, 0x09, 0x06, 0x0B, 0xFE, 0x03, 0xFF, 0x08, 0x18, 0x11, 0x10, 0x1F, 0x16, 
0xF8, 0xFA, 0x07, 0xF2, 0xF6, 0xFD, 0xFB, 0xF8, 0x02, 0xF3, 0x09, 0x06, 0xF8, 0x03, 0xFF, 0xFB, 
0xFA, 0x07, 0xE1, 0x09, 0x1D, 0xE5, 0x06, 0x25, 0xDE, 0xFB, 0x1A, 0x04, 0xFF, 0xFA, 0x04, 0xFE, 
0xF6, 0x0F, 0x0A, 0xF7, 0xFD, 0x15, 0xFA, 0x03, 0x09, 0xF9, 0x10, 0xF7, 0xE8, 0x24, 0x09, 0xDD, 
0x15, 0x17, 0xDA, 0xFB, 0x15, 0xEE, 0x32, 0x09, 0xD3, 0x2A, 0x08, 0xCA, 0x24, 0x02, 0xCD, 0x09, 
0x0C, 0xE8, 0x13, 0x00, 0xEE, 0x1D, 0xF3, 0xF7, 0x05, 0x06, 0xFC, 0xFB, 0xF7, 0xF0, 0xFC, 0xF3, 
0xF5, 0x0F, 0x0B, 0xFE, 0x04, 0x00, 0xFB, 0x01, 0xF8, 0xF2, 0x04, 0x03, 0xFD, 0x04, 0x04, 0xFA, 
0x03, 0x06, 0xFD, 0xEC, 0xE0, 0xEC, 0xF5, 0xF2, 0xF2, 0xE6, 0xE0, 0xEB, 0xFE, 0x0A, 0x02, 0x01, 
0x05, 0x02, 0x04, 0xFC, 0x06, 0xFD, 0xFB, 0x05, 0xFE, 0xFB, 0xFF, 0xFA, 0x03, 0x03, 0x03, 0x06, 
0x06, 0xFC, 0xFA, 0x02, 0x05, 0x02, 0x03, 0x07, 0x0C, 0x07, 0x02, 0x07, 0x03, 0xFF, 0xFE, 0xFF, 
0xF3, 0xEF, 0xF4, 0xF8, 0xF8, 0xF8, 0x00, 0x01, 0xFE, 0xF3, 0xE4, 0xF0, 0xF1, 0xE3, 0xED, 0xF1, 
0xDF, 0xE9, 0x01, 0x06, 0x06, 0xFE, 0x02, 0x06, 0xFE, 0xFF, 0x02, 0xFF, 0x00, 0xFC, 0x06, 0x0B, 
0xFF, 0x05, 0x08, 0xFB, 0x04, 0xFD, 0xFC, 0xFE, 0xFF, 0x02, 0xFE, 0x07, 0x0C, 0x00, 0x01, 0x05, 
0xFD, 0xF5, 0xF6, 0x03, 0xF5, 0xF2, 0x05, 0x07, 0x03, 0x04, 0x01, 0xFB, 0x01, 0x00, 0xFE, 0x01, 
0xFB, 0xFC, 0x03, 0x01, 0xFC, 0x01, 0x0D, 0x0A, 0xFE, 0x0D, 0x0D, 0xF2, 0xFD, 0x2A, 0xFA, 0xF1, 
0x0A, 0xFE, 0x0C, 0xBF, 0x0E, 0x1F, 0xFD, 0x08, 0x22, 0xF9, 0x05, 0xEA, 0xDB, 0x0B, 0xFD, 0xED, 
0x0F, 0x0D, 0x02, 0xFA, 0x06, 0x2F, 0xEA, 0xF6, 0x24, 0xEE, 0xD6, 0x1B, 0x03, 0x23, 0x0E, 0x04, 
0x04, 0x24, 0xF2, 0xE5, 0xFD, 0x00, 0x08, 0x03, 0xF8, 0x0F, 0x14, 0xEC, 0xEE, 0x39, 0xF7, 0x01, 
0x0A, 0xF8, 0xFF, 0x0B, 0xF9, 0x01, 0xED, 0x10, 0x22, 0xE5, 0xF7, 0x11, 0x16, 0xF6, 0xE9, 0x02, 
0xFD, 0x13, 0xED, 0x02, 0x05, 0xEE, 0x04, 0xFF, 0xF5, 0xFA, 0x12, 0xF1, 0x05, 0xFF, 0x03, 0xFE, 
0x08, 0xF5, 0xFE, 0x0C, 0xF2, 0x00, 0x03, 0xF7, 0x04, 0x03, 0xFB, 0x11, 0xE9, 0x08, 0x06, 0xED, 
0x04, 0xFF, 0xE7, 0x0B, 0x00, 0x1B, 0xED, 0x0A, 0xF4, 0x01, 0x04, 0xEB, 0x1F, 0x04, 0x06, 0xEF, 
0x06, 0x0C, 0xE3, 0x0B, 0xFF, 0xEB, 0xFF, 0xFC, 0x06, 0x0C, 0xF5, 0x0D, 0x0D, 0xE7, 0x14, 0x16, 
0xF0, 0x0E, 0x0B, 0xEF, 0x0F, 0xF5, 0x17, 0xF8, 0xF5, 0xEF, 0xFA, 0xF6, 0xED, 0xF9, 0xF8, 0xF5, 
0xF9, 0xF9, 0x02, 0x03, 0xFB, 0xF9, 0x00, 0xF8, 0xEE, 0xED, 0x01, 0x01, 0x13, 0xFE, 0xFF, 0x12, 
0xF9, 0xFC, 0x0C, 0xFB, 0xF1, 0xE9, 0xFA, 0xF1, 0xEA, 0x03, 0x06, 0x00, 0x04, 0x13, 0x11, 0x05, 
0x12, 0x0C, 0x01, 0x0E, 0x09, 0x09, 0x12, 0xFF, 0x04, 0x0C, 0x06, 0xFE, 0x03, 0x15, 0x05, 0x08, 
0xE7, 0x02, 0x07, 0xF0, 0x03, 0x0E, 0xF1, 0x04, 0x0C, 0x0A, 0x11, 0x10, 0x03, 0x0D, 0x09, 0xF1, 
0xF7, 0x00, 0xF6, 0xF5, 0xFB, 0x06, 0xFC, 0xFB, 0x06, 0x10, 0x0B, 0xF2, 0x05, 0x04, 0x03, 0xF6, 
0xEF, 0x0D, 0x09, 0x19, 0x09, 0x14, 0x27, 0x17, 0x01, 0x0F, 0x02, 0xF8, 0xFB, 0xFC, 0xE5, 0xF7, 
0x02, 0xE8, 0x02, 0x0A, 0x10, 0x19, 0xF8, 0x0A, 0x19, 0xFA, 0x00, 0x13, 0xEF, 0xFD, 0x09, 0xF4, 
0x10, 0x0E, 0xF8, 0x0B, 0x19, 0xFC, 0x16, 0xD5, 0xE2, 0x0E, 0xFC, 0xF3, 0x16, 0x05, 0x00, 0x1B, 
0xF8, 0x03, 0x20, 0xFB, 0xF8, 0x1F, 0xEA, 0xEE, 0x07, 0xFA, 0xFD, 0x0D, 0xFA, 0xF8, 0x0D, 0x00, 
0xFF, 0x07, 0xFF, 0x03, 0xFE, 0xFE, 0xF9, 0xFA, 0xFD, 0xFC, 0x04, 0xFF, 0x01, 0xFD, 0xFD, 0x0B, 
0xFA, 0xFD, 0x0B, 0x03, 0xFC, 0xF7, 0x0F, 0x03, 0xF7, 0x12, 0x11, 0x03, 0xFA, 0xF5, 0xF9, 0xFB, 
0xEA, 0xEF, 0x01, 0xF1, 0xEE, 0x04, 0x0A, 0xFA, 0x08, 0x04, 0xF8, 0x07, 0xFD, 0xF6, 0x0D, 0x00, 
0x06, 0x0B, 0xFE, 0xF7, 0x04, 0x00, 0xFB, 0xF2, 0xEA, 0xFE, 0xEF, 0xE8, 0xEE, 0xFE, 0xE6, 0xF6, 
0x32, 0x43, 0x41, 0x42, 0x67, 0x5C, 0x24, 0x3D, 0x35, 0xEB, 0xD9, 0xCD, 0xE7, 0xEB, 0xD8, 0x34, 
0x3D, 0x29, 0xFC, 0xE4, 0xC9, 0xFB, 0xEB, 0xD4, 0xFF, 0xF4, 0xE7, 0x08, 0x16, 0x16, 0x1F, 0x1A, 
0x0F, 0xE2, 0xCD, 0xBF, 0xE5, 0xD8, 0xE3, 0xF3, 0xED, 0xFC, 0xE2, 0xD7, 0xED, 0xEF, 0xF2, 0x0D, 
0x01, 0x07, 0x18, 0xEF, 0x0D, 0x02, 0x0A, 0x0D, 0x2B, 0xFF, 0x1F, 0x2F, 0xD1, 0xEF, 0xFC, 0xE4, 
0xE4, 0xEE, 0xF2, 0xF3, 0xFD, 0xD6, 0xDD, 0x01, 0x0E, 0x1C, 0x12, 0x16, 0x34, 0x21, 0x0C, 0x1D, 
0x14, 0xF8, 0xEA, 0xEE, 0xFE, 0xF6, 0xF1, 0x11, 0x0F, 0xFF, 0xF7, 0xF1, 0x03, 0xF4, 0xEC, 0xFC, 
0xFD, 0xF8, 0x00, 0x06, 0x0D, 0x05, 0x06, 0x0E, 0x02, 0xED, 0xEC, 0xF7, 0xF8, 0x02, 0x0D, 0xF7, 
0xF9, 0xFC, 0xFC, 0xEF, 0xF6, 0x02, 0xF1, 0xF2, 0x0D, 0x0B, 0xFC, 0x06, 0x18, 0x08, 0x13, 0x17, 
0xFE, 0x13, 0x23, 0x07, 0x08, 0x0F, 0xFA, 0x03, 0x09, 0xFE, 0xFA, 0xF8, 0xFB, 0xF7, 0xED, 0xFA, 
0xFB, 0x0B, 0x0A, 0x0A, 0x1A, 0x00, 0x05, 0x03, 0xF2, 0xD1, 0xF4, 0x0D, 0xF9, 0x20, 0x17, 0x06, 
0x1C, 0x04, 0xF9, 0xED, 0x0E, 0xF8, 0xF0, 0x09, 0x05, 0xF8, 0x03, 0x13, 0x20, 0x01, 0x1E, 0x0D, 
0xE3, 0x14, 0xE8, 0xDE, 0xFE, 0xFD, 0x15, 0x04, 0x14, 0x0D, 0xFF, 0xFF, 0xF3, 0xF5, 0x07, 0xF3, 
0xEA, 0x04, 0x07, 0x03, 0x12, 0x0B, 0x02, 0x1C, 0xFF, 0x0A, 0x14, 0xF8, 0xFB, 0x03, 0xDF, 0xF7, 
0x10, 0x16, 0x12, 0x10, 0xFE, 0x07, 0xF0, 0xE8, 0x05, 0xF3, 0x0A, 0xFC, 0xF4, 0x10, 0xFF, 0xFF, 
0x06, 0x0A, 0xCD, 0x1B, 0xFD, 0xEE, 0x10, 0x08, 0xEE, 0x0A, 0x0A, 0x0B, 0x05, 0x06, 0x10, 0x00, 
0x01, 0x19, 0xF1, 0xF4, 0x0A, 0xFC, 0xF3, 0x13, 0xFD, 0xEF, 0x28, 0xEC, 0x06, 0xED, 0x0C, 0xFB, 
0xEF, 0x13, 0xF1, 0x17, 0xF2, 0x04, 0xFE, 0x0B, 0x0E, 0xDF, 0x32, 0x02, 0xD9, 0x42, 0x08, 0xDD, 
0x15, 0xFB, 0xEC, 0x15, 0xFB, 0xE9, 0x05, 0xFA, 0xF0, 0x0F, 0xF8, 0x07, 0xFB, 0x01, 0x1B, 0xF0, 
0x10, 0x05, 0xE8, 0xE9, 0x22, 0xEB, 0xEC, 0x0D, 0xFB, 0x23, 0xCD, 0x00, 0x15, 0xE5, 0x03, 0x36, 
0xE0, 0x09, 0xFE, 0xD7, 0x18, 0x0D, 0xDC, 0x0B, 0x14, 0x02, 0xF9, 0xF5, 0x27, 0xE4, 0xF6, 0x35, 
0xFC, 0xB6, 0x32, 0xF9, 0x19, 0xF5, 0xD1, 0x07, 0x31, 0x06, 0xED, 0xFF, 0x1D, 0x15, 0x13, 0xFE, 
0xFF, 0x1C, 0xD7, 0xBD, 0x3E, 0xF6, 0x09, 0x1C, 0xE0, 0xF6, 0x24, 0xE9, 0xF4, 0x08, 0x00, 0x1C, 
0xBC, 0xED, 0x13, 0x16, 0x02, 0xF3, 0x24, 0x04, 0x05, 0xE9, 0x04, 0xFE, 0x02, 0xF9, 0xFC, 0x05, 
0xF8, 0x0B, 0x03, 0xEB, 0x06, 0x12, 0xFA, 0xEA, 0x0D, 0x00, 0xFA, 0xCF, 0xFD, 0xFF, 0xDA, 0x02, 
0x29, 0xD3, 0x09, 0xE6, 0x06, 0x08, 0xF2, 0xFC, 0x04, 0x0F, 0xF6, 0xFE, 0x1C, 0xF5, 0xEA, 0xEA, 
0x19, 0xFA, 0xF6, 0x00, 0x19, 0xF6, 0xCB, 0xF1, 0x0C, 0xF7, 0xD0, 0x11, 0x33, 0xC6, 0x14, 0x51, 
0xEB, 0xFA, 0x39, 0xF7, 0xBD, 0x27, 0xF5, 0xDF, 0x16, 0x0F, 0xFD, 0xF0, 0x03, 0x31, 0xDA, 0xEF, 
0xFD, 0xEF, 0xEF, 0xFA, 0xE4, 0xEB, 0xFA, 0xEC, 0xF0, 0x07, 0x03, 0x00, 0x08, 0x06, 0x00, 0xFA, 
0xF1, 0xF8, 0xFF, 0xEC, 0xE9, 0x03, 0xEE, 0xE5, 0x06, 0xFE, 0xEA, 0xFC, 0x01, 0x05, 0xFA, 0x03, 
0x0B, 0x05, 0x0C, 0x07, 0xFD, 0xF5, 0xF9, 0x01, 0xEC, 0xF1, 0x01, 0xF0, 0xE8, 0xF7, 0x12, 0x20, 
0xF2, 0x0D, 0x1F, 0xF2, 0xF2, 0x08, 0xFF, 0x18, 0x26, 0xFB, 0x12, 0x24, 0xF4, 0x04, 0x1A, 0xFE, 
0xF3, 0xF8, 0xF7, 0xF5, 0x00, 0xF2, 0xF2, 0xFB, 0x03, 0x01, 0x23, 0x3E, 0xDE, 0x0A, 0x0D, 0xE3, 
0x12, 0xAD, 0xF5, 0xE9, 0xE9, 0xF2, 0x1E, 0x2B, 0xF7, 0xE0, 0x0B, 0xEA, 0x21, 0x25, 0x1C, 0x3D, 
0xBA, 0xF1, 0xC3, 0x23, 0xF8, 0x1F, 0xF7, 0x06, 0x18, 0xED, 0x35, 0xD3, 0xE5, 0x02, 0x9E, 0x45, 
0xEE, 0xBE, 0x7A, 0xFB, 0x68, 0xBB, 0x17, 0x34, 0x9B, 0x23, 0xFA, 0xBC, 0xFA, 0xE7, 0xDD, 0xE5, 
0xEA, 0xEE, 0xE1, 0x09, 0xF2, 0xFD, 0xF6, 0x19, 0xF7, 0x10, 0xFE, 0xF9, 0xFD, 0xF9, 0x30, 0xDB, 
0xF1, 0x0B, 0xDE, 0x0F, 0xFD, 0x0E, 0xFE, 0xF6, 0x31, 0xDB, 0x0C, 0x02, 0xDB, 0x0A, 0xD7, 0xF4, 
0x0D, 0xEF, 0xF4, 0xFC, 0xD9, 0x3C, 0xFA, 0x08, 0x1E, 0x35, 0x33, 0xB0, 0x21, 0xEE, 0xB7, 0xF7, 
0xD6, 0x06, 0x03, 0xCD, 0xEC, 0xDE, 0xE9, 0xFF, 0xEB, 0x1C, 0xC7, 0xD1, 0x06, 0x66, 0xE7, 0x5C, 
0x66, 0x12, 0x3E, 0x01, 0xF8, 0x02, 0x25, 0x09, 0x18, 0xEC, 0x00, 0xFE, 0xE9, 0x04, 0xF0, 0xF5, 
0xFC, 0xEC, 0x03, 0xF3, 0x01, 0x07, 0xF5, 0x02, 0x16, 0xFC, 0x0F, 0xF4, 0x00, 0x04, 0xD9, 0xED, 
0x16, 0x12, 0xFC, 0x3B, 0xFD, 0x0E, 0x4B, 0xC5, 0xF9, 0xFA, 0xFC, 0xFF, 0xFE, 0x01, 0xFE, 0xFB, 
0xFD, 0x08, 0xFB, 0xF9, 0x0A, 0xFA, 0xFA, 0x05, 0xFC, 0xFD, 0xFE, 0xFF, 0x06, 0x01, 0xFD, 0xF8, 
0x03, 0x01, 0xFE, 0xF9, 0x09, 0x04, 0xFD, 0x03, 0x00, 0x03, 0xFE, 0xF9, 0xFF, 0xFC, 0x01, 0xFE, 
0xFA, 0x08, 0xFF, 0x00, 0x09, 0x06, 0x03, 0xFE, 0x06, 0x00, 0xFB, 0x05, 0xFF, 0xFB, 0xFD, 0x01, 
0x0C, 0xFE, 0xFD, 0xF4, 0x02, 0xFE, 0xF8, 0xF7, 0x03, 0x02, 0xF9, 0x06, 0x05, 0xFA, 0x02, 0x02, 
0x08, 0x04, 0xFF, 0x07, 0xFA, 0x02, 0x07, 0xF6, 0xFF, 0xFE, 0x04, 0x01, 0xFE, 0x03, 0xFF, 0xFB, 
0xFB, 0xF7, 0xFC, 0xFC, 0x00, 0xFB, 0xF7, 0x05, 0xFB, 0xFA, 0x06, 0xFD, 0xFF, 0x01, 0xFF, 0x00, 
0x07, 0xFE, 0x05, 0x09, 0x00, 0x04, 0x03, 0xF9, 0x05, 0x06, 0xFB, 0x04, 0x04, 0x02, 0xFF, 0xFB, 
0x05, 0x00, 0xFF, 0x04, 0x00, 0x04, 0x03, 0x01, 0xFF, 0xFE, 0x05, 0xFC, 0xFE, 0x07, 0xFE, 0xFB, 
0xFE, 0xFA, 0xF8, 0xF7, 0xF4, 0xF6, 0xFE, 0x03, 0xE6, 0xE6, 0xF1, 0xE6, 0xF2, 0xF9, 0xE9, 0xF7, 
0xF6, 0xF8, 0xF1, 0x03, 0xF1, 0x00, 0x03, 0xF8, 0x00, 0x0A, 0xF4, 0xF3, 0xF9, 0xF2, 0xED, 0xF1, 
0xFE, 0x03, 0x00, 0x00, 0xFF, 0xFA, 0xFF, 0xF9, 0xF8, 0xFC, 0xF6, 0xF5, 0x00, 0xFA, 0x0E, 0x01, 
0xF9, 0x13, 0xFC, 0xF6, 0x0A, 0xF7, 0xEE, 0x03, 0xF4, 0xF4, 0x04, 0xFB, 0x00, 0x04, 0xEB, 0xEF, 
0xF0, 0xF0, 0xE3, 0xED, 0xEE, 0xFF, 0x05, 0x10, 0xF8, 0x0F, 0x09, 0xF6, 0x06, 0xFE, 0xF6, 0xFF, 
0x06, 0xF3, 0x03, 0x04, 0xF2, 0xFA, 0x0C, 0xEE, 0xEF, 0x00, 0xFD, 0xEF, 0xFC, 0x06, 0xEB, 0xFB, 
0x06, 0xF2, 0x02, 0x0F, 0x0E, 0x06, 0x1D, 0x12, 0x00, 0x1B, 0x03, 0xFE, 0x0D, 0x0E, 0xF6, 0x0E, 
0x0E, 0x02, 0x04, 0x09, 0xF6, 0xF7, 0x07, 0xF9, 0xF9, 0x06, 0x00, 0xFC, 0x02, 0xFC, 0xF7, 0xFB, 
0xF9, 0xFE, 0xFD, 0xFA, 0xFC, 0xFC, 0xFE, 0xF4, 0xF7, 0x02, 0xF1, 0xF9, 0x06, 0xF6, 0xFE, 0xFA, 
0x0B, 0xF5, 0xFC, 0x1C, 0xFE, 0xFE, 0x1B, 0x0B, 0x08, 0x1C, 0x1F, 0x00, 0xFA, 0xF4, 0xFC, 0xDE, 
0xE4, 0x02, 0x13, 0x0F, 0x02, 0xF7, 0xF7, 0x00, 0xEC, 0xF0, 0x01, 0x10, 0x14, 0x02, 0x2F, 0x1A, 
0x04, 0x26, 0x0E, 0x08, 0xB9, 0xE7, 0xF0, 0xD3, 0xD4, 0xFA, 0xED, 0xF3, 0xFB, 0x08, 0x0A, 0xFD, 
0xFA, 0xFE, 0x06, 0x00, 0xF8, 0x07, 0x0C, 0x0F, 0x00, 0xF6, 0x04, 0xFA, 0xF2, 0xFA, 0x19, 0x16, 
0x0A, 0x04, 0xF1, 0xFA, 0xFB, 0xE9, 0xFE, 0x00, 0xFA, 0x0C, 0xFC, 0xFF, 0x0A, 0x01, 0x09, 0x08, 
0xF9, 0x08, 0x11, 0x07, 0x10, 0x0D, 0x0B, 0xFB, 0x03, 0xF5, 0xE4, 0xE1, 0xFF, 0xF5, 0xED, 0x0F, 
0x03, 0x15, 0xFB, 0x13, 0x07, 0xFA, 0xEF, 0xF7, 0xFC, 0xDF, 0xED, 0x07, 0x15, 0x0D, 0x06, 0x15, 
0x11, 0x00, 0x02, 0xFD, 0x07, 0x17, 0x00, 0x01, 0x06, 0x0A, 0xF7, 0xF9, 0x03, 0xF8, 0x00, 0x08, 
0xF8, 0x01, 0xF1, 0x03, 0x07, 0xFA, 0x02, 0x08, 0x08, 0x01, 0xFE, 0x09, 0xFC, 0xFC, 0x02, 0x00, 
0x16, 0x08, 0xFB, 0xFE, 0xFB, 0x00, 0xF2, 0xF7, 0xF1, 0x19, 0xD5, 0xFD, 0xF4, 0x11, 0x1B, 0xCA, 
0xF9, 0xE1, 0xFD, 0xD9, 0xFF, 0xF4, 0x16, 0xF9, 0xF6, 0x1B, 0x17, 0x08, 0xD1, 0x25, 0x16, 0xA7, 
0x27, 0x40, 0xB9, 0xE8, 0xD0, 0x57, 0xF3, 0xAD, 0x41, 0xF5, 0xB8, 0x28, 0x1D, 0x6D, 0xEF, 0x02, 
0x4B, 0x46, 0xD4, 0x0A, 0x38, 0xFE, 0x1E, 0xEF, 0x06, 0x1C, 0x07, 0xFB, 0x0A, 0x05, 0xF6, 0xD7, 
0x2E, 0x25, 0xC9, 0xEB, 0x1C, 0xE2, 0xF7, 0x07, 0xCD, 0xFA, 0x16, 0xF7, 0xA9, 0x0D, 0x3A, 0xA9, 
0xF6, 0xF8, 0x19, 0x05, 0xBF, 0x3A, 0x15, 0xC7, 0xEC, 0x13, 0xF8, 0xF3, 0x1E, 0x00, 0xC3, 0x29, 
0x1A, 0xB8, 0xDF, 0x0F, 0xB3, 0xEB, 0x09, 0xD8, 0x02, 0xDF, 0x03, 0xE7, 0xD9, 0xDA, 0xEC, 0xDE, 
0xC8, 0xF4, 0xFD, 0xC7, 0xFA, 0xFB, 0x14, 0xF5, 0x0D, 0x0C, 0xFB, 0x00, 0x07, 0xFF, 0x49, 0x43, 
0xDF, 0x18, 0x74, 0xE8, 0xC3, 0x3A, 0x02, 0x17, 0x03, 0xF7, 0x24, 0x18, 0xF7, 0x0E, 0x1D, 0xF7, 
0x31, 0xE7, 0x06, 0x43, 0xFC, 0x0E, 0x1A, 0x33, 0xC3, 0xF0, 0xFD, 0xC4, 0xE7, 0x07, 0xCF, 0x11, 
0xF1, 0x07, 0x1D, 0x00, 0x29, 0x5A, 0x32, 0x25, 0x5E, 0x27, 0x12, 0xDE, 0x1C, 0x07, 0xD9, 0x23, 
0x0E, 0xD6, 0x15, 0xFD, 0x02, 0x00, 0x02, 0xF5, 0x1B, 0x0A, 0xEA, 0x0E, 0xFB, 0x0C, 0x0E, 0x03, 
0x10, 0x02, 0x02, 0x04, 0xF3, 0xE0, 0x07, 0xF3, 0xD5, 0x1F, 0x12, 0xEE, 0x1F, 0x21, 0x11, 0x08, 
0xE4, 0xEF, 0x34, 0xBF, 0xE4, 0x3E, 0xBF, 0xFE, 0xDA, 0xD9, 0x08, 0xB7, 0x0E, 0xF1, 0xC4, 0x23, 
0x22, 0xCE, 0xF4, 0x19, 0xC3, 0xF1, 0x10, 0xE5, 0xF7, 0x15, 0xE6, 0x07, 0x00, 0xED, 0x11, 0xF8, 
0xE6, 0x06, 0xFD, 0x22, 0xF6, 0xF1, 0x2B, 0xE3, 0xF5, 0x3C, 0xE7, 0x05, 0x0E, 0xFB, 0x01, 0x25, 
0xE3, 0xE3, 0x18, 0xE9, 0xE8, 0x02, 0xF9, 0xEF, 0x23, 0x0B, 0x01, 0x2B, 0x0C, 0xFA, 0x1F, 0xF3, 
0xF9, 0x1E, 0x08, 0xF8, 0xFE, 0x10, 0xED, 0xEE, 0xE3, 0xEE, 0xF6, 0xD1, 0xF3, 0x0B, 0xE4, 0xDC, 
0x36, 0x0C, 0xD1, 0x4C, 0x0D, 0xDC, 0x5F, 0xF6, 0xF9, 0xE5, 0xF1, 0x0A, 0xF8, 0x03, 0x01, 0xED, 
0x03, 0x00, 0x15, 0xFD, 0xFC, 0x24, 0xFC, 0xF4, 0x14, 0xF3, 0x04, 0xE9, 0x02, 0xFF, 0xEB, 0xFC, 
0x04, 0x07, 0x01, 0x05, 0xFC, 0x0C, 0xFC, 0xE3, 0x04, 0xFA, 0xE5, 0x00, 0xF9, 0xF6, 0x01, 0xE8, 
0xED, 0xFC, 0xE8, 0xEE, 0xFC, 0x1E, 0x39, 0xF9, 0x3A, 0x4C, 0xF7, 0x22, 0x19, 0xF5, 0xF6, 0x06, 
0xEE, 0xF4, 0x0D, 0xF9, 0xFA, 0x09, 0x02, 0xFD, 0xE3, 0xF4, 0x03, 0xE5, 0x02, 0x01, 0xF0, 0x08, 
0x0B, 0xF0, 0x05, 0xFC, 0xF4, 0x0F, 0xDE, 0xFA, 0xFE, 0x0E, 0xFB, 0xFD, 0x07, 0xE3, 0x01, 0x0A, 
0xED, 0x05, 0xED, 0xFB, 0xFF, 0xF0, 0x10, 0xFF, 0xF7, 0x05, 0xFC, 0x04, 0x1A, 0xF8, 0x0A, 0x23, 
0xFF, 0x03, 0x16, 0x01, 0x08, 0x46, 0x07, 0x1F, 0x65, 0x03, 0x16, 0x35, 0xFC, 0x03, 0xEF, 0xF9, 
0xF9, 0xD9, 0xF5, 0xEC, 0xDC, 0xFC, 0x10, 0x46, 0x09, 0x24, 0x5F, 0x15, 0x1A, 0x31, 0x04, 0xF8, 
0x08, 0xEF, 0x0B, 0x1E, 0xFA, 0x0F, 0x12, 0x02, 0x22, 0x1E, 0x03, 0x32, 0x27, 0xF4, 0x10, 0x11, 
0xFE, 0xF6, 0x07, 0xFE, 0x01, 0x1A, 0xF7, 0xFA, 0x1C, 0xFF, 0x0C, 0xFD, 0x06, 0x0C, 0xFB, 0x05, 
0x09, 0xF2, 0xFA, 0x02, 0x12, 0xF0, 0x04, 0x0A, 0x03, 0x00, 0xFD, 0xFA, 0xFF, 0x10, 0xFB, 0x0A, 
0x22, 0x08, 0x08, 0x1C, 0x05, 0xF4, 0xFC, 0xF5, 0xF4, 0x03, 0xF3, 0xF6, 0x05, 0xFD, 0x00, 0x10, 
0x09, 0xF8, 0x24, 0x07, 0x00, 0x11, 0xFA, 0xF4, 0xDA, 0xF0, 0x06, 0xF7, 0x0D, 0xFC, 0xF7, 0xF5, 
0xEC, 0xE8, 0x1A, 0xF2, 0xD7, 0x0A, 0xEE, 0xE0, 0x0F, 0x0D, 0x08, 0x19, 0x1C, 0xFA, 0x10, 0x13, 
0xDD, 0xEC, 0x03, 0xDC, 0xF4, 0xED, 0xB8, 0xD4, 0x00, 0xDC, 0xF7, 0xFC, 0xED, 0xF0, 0xFB, 0xF6, 
0xF5, 0x05, 0x09, 0xFB, 0xF6, 0xEE, 0xED, 0xFC, 0xEA, 0xF3, 0x02, 0xF8, 0xF9, 0xFC, 0x15, 0x0E, 
0xFC, 0x24, 0x0F, 0xF3, 0x19, 0x03, 0xF8, 0xF9, 0xF4, 0xFA, 0xF7, 0xF8, 0xFE, 0x00, 0x00, 0x20, 
0x0A, 0x07, 0x0B, 0xED, 0xEC, 0x18, 0x04, 0xFF, 0x01, 0x04, 0x09, 0xFC, 0x03, 0x11, 0x0A, 0x01, 
0xF9, 0xFF, 0x08, 0xFB, 0xFE, 0x00, 0xFC, 0x05, 0xFE, 0x04, 0x01, 0xF3, 0xFB, 0xFD, 0xF8, 0x02, 
0xF7, 0x00, 0x07, 0x07, 0x04, 0x18, 0x03, 0xF6, 0x06, 0xFA, 0xEF, 0xEE, 0xFD, 0xFF, 0xFB, 0xFA, 
0xFD, 0xEF, 0xFE, 0xFF, 0xF8, 0x05, 0xF9, 0xF5, 0x00, 0xF7, 0xF4, 0x03, 0xFE, 0xF8, 0xFD, 0x01, 
0xF4, 0x01, 0x0C, 0xDF, 0xFE, 0x01, 0xCF, 0xF6, 0xF7, 0x09, 0xF3, 0xEC, 0x03, 0xF2, 0xED, 0x03, 
0xF4, 0xFD, 0xDF, 0xFB, 0x03, 0xF3, 0xFD, 0xF5, 0xFD, 0x04, 0xFC, 0xEC, 0xF7, 0xF4, 0xEE, 0xF4, 
0xEC, 0xF2, 0xF9, 0xF1, 0xE2, 0xF8, 0xFA, 0xEE, 0xFC, 0xF8, 0xE8, 0xF4, 0xE6, 0xF2, 0xF9, 0xF1, 
0x00, 0x05, 0x00, 0x09, 0xF7, 0xFB, 0xF0, 0xF9, 0xFA, 0xF0, 0x01, 0x02, 0x03, 0x05, 0x01, 0xF2, 
0x06, 0xFA, 0xF2, 0x03, 0x01, 0xFC, 0x07, 0x03, 0x08, 0x09, 0x03, 0x07, 0x0A, 0x06, 0x0A, 0x11, 
0x0F, 0x25, 0x09, 0x17, 0x28, 0x01, 0xFF, 0xFB, 0xE6, 0xF9, 0x1A, 0xE5, 0xF2, 0x31, 0xF1, 0x02, 
0x18, 0xEB, 0xF1, 0x10, 0xF5, 0xFD, 0x1B, 0xFC, 0xF8, 0x13, 0x18, 0x14, 0xDE, 0x0D, 0x13, 0xEB, 
0x04, 0x00, 0xED, 0xFF, 0xF8, 0x05, 0x02, 0x05, 0x09, 0x07, 0x09, 0xEE, 0x03, 0x05, 0x0C, 0x00, 
0xF8, 0x09, 0x04, 0xF7, 0xFE, 0xF8, 0xFB, 0x02, 0xF5, 0x00, 0x13, 0xFB, 0xFE, 0x12, 0x05, 0x02, 
0xE6, 0xFC, 0xF1, 0xFD, 0xF7, 0xF8, 0xF7, 0x08, 0x19, 0xF0, 0x0F, 0x14, 0xE1, 0x10, 0x04, 0xD6, 
0x18, 0xF9, 0xEF, 0x0E, 0xF4, 0xE3, 0x0D, 0xF8, 0xF8, 0x0F, 0x0E, 0xEF, 0x12, 0x0A, 0xE8, 0x0F, 
0x0E, 0xEC, 0xEA, 0xEF, 0x17, 0xE7, 0xDB, 0x20, 0xF3, 0xF6, 0xFE, 0xF6, 0xFF, 0xFE, 0xFE, 0xFD, 
0x07, 0x05, 0x00, 0x10, 0xFD, 0xFF, 0x02, 0x02, 0x03, 0x0F, 0x00, 0x03, 0x11, 0x00, 0xF6, 0x0C, 
0x02, 0xF4, 0x06, 0x01, 0xFD, 0x02, 0xFA, 0xFC, 0x12, 0xFD, 0x01, 0x1B, 0xFF, 0xFD, 0x17, 0xD6, 
0xFB, 0x3E, 0xD5, 0xFA, 0x51, 0xE5, 0x00, 0x1E, 0x0E, 0x0D, 0x0A, 0x08, 0x01, 0xFC, 0x02, 0xFA, 
0xF0, 0x01, 0x00, 0x15, 0x0C, 0x04, 0x0A, 0xFA, 0xF0, 0xF6, 0x11, 0x08, 0x07, 0xFB, 0x02, 0x04, 
0xF4, 0xFD, 0xFA, 0x10, 0x05, 0x0F, 0x06, 0x0A, 0xFF, 0xEF, 0x02, 0xF8, 0x1B, 0xFF, 0x07, 0x18, 
0x00, 0x05, 0x12, 0x04, 0x07, 0xFC, 0xFD, 0x08, 0x00, 0x03, 0x07, 0xF9, 0x02, 0xFD, 0x0E, 0x19, 
0x09, 0xEF, 0x05, 0xFA, 0xD7, 0xF0, 0xEF, 0x06, 0x04, 0x01, 0xFF, 0x07, 0xF9, 0xF2, 0x03, 0xF3, 
0x05, 0xEE, 0x01, 0x08, 0xFD, 0xFC, 0x0E, 0x15, 0xFD, 0x09, 0x0B, 0x01, 0xF6, 0xF8, 0xEE, 0xF3, 
0xFA, 0xDE, 0xFA, 0xF0, 0xFB, 0x1B, 0x0A, 0x04, 0x1F, 0x15, 0x00, 0xFE, 0x01, 0xFD, 0x1A, 0x14, 
0x16, 0x1E, 0x14, 0x12, 0xF9, 0xFE, 0x03, 0x09, 0x07, 0x0C, 0x06, 0x00, 0x0A, 0x12, 0x05, 0x0A, 
0x0D, 0x01, 0x01, 0x0D, 0xFD, 0x07, 0xF9, 0xFF, 0xFF, 0x02, 0x00, 0xFE, 0x01, 0xFE, 0x01, 0xF7, 
0xFD, 0xF9, 0xFB, 0xF4, 0xF8, 0x04, 0xFE, 0xFA, 0xE4, 0xE0, 0xEB, 0xF6, 0xF6, 0xF1, 0x18, 0x3E, 
0x17, 0x0D, 0xF8, 0xF5, 0xF2, 0xE9, 0xF7, 0x03, 0x16, 0x13, 0xFA, 0x03, 0x0A, 0xF0, 0x0D, 0xF6, 
0xF5, 0xEC, 0xF2, 0x03, 0xE9, 0xF1, 0xF8, 0x09, 0xF3, 0xFC, 0x04, 0x00, 0xFB, 0xFD, 0xFD, 0x20, 
0x1D, 0xFF, 0x22, 0x1E, 0x0D, 0xFF, 0xFC, 0xF6, 0xF0, 0x04, 0xFF, 0x11, 0x1F, 0x0C, 0x0D, 0x10, 
0x04, 0xEB, 0xE6, 0xE7, 0x04, 0xF1, 0x0B, 0xF8, 0x07, 0x04, 0xEE, 0x00, 0xF9, 0xF1, 0xFB, 0xFB, 
0xF5, 0xFC, 0xF5, 0x0A, 0x09, 0x0D, 0xF2, 0x0A, 0x0F, 0xEF, 0xE9, 0x04, 0xEC, 0xFE, 0x09, 0xE6, 
0xF5, 0xEF, 0xF1, 0x0C, 0x0D, 0xF4, 0x0B, 0x03, 0xF4, 0x12, 0xFA, 0x0F, 0x0D, 0xFC, 0x02, 0x0D, 
0x01, 0x00, 0x0A, 0x02, 0x13, 0xF5, 0xFB, 0xFF, 0x06, 0x0A, 0x0D, 0x18, 0x0A, 0xFF, 0xFE, 0xF9, 
0x16, 0x25, 0x13, 0x1C, 0x1B, 0x12, 0x07, 0xF2, 0xF7, 0x00, 0xF7, 0x02, 0x09, 0x11, 0x09, 0x03, 
0x0B, 0x1E, 0x02, 0xFA, 0xF0, 0x07, 0xFD, 0xF2, 0xD8, 0xCB, 0x00, 0xE5, 0xDF, 0x15, 0xFC, 0xED, 
0x11, 0x35, 0x2D, 0x15, 0x1E, 0x2A, 0x0A, 0x09, 0x04, 0xF8, 0xDE, 0x1F, 0x03, 0xE9, 0x15, 0x08, 
0xED, 0x20, 0x0C, 0xF2, 0x1F, 0x0D, 0xEC, 0x2C, 0xFB, 0xE6, 0x18, 0xF0, 0x05, 0x09, 0x05, 0x07, 
0x04, 0x0D, 0x0B, 0x05, 0xFE, 0xFA, 0xF5, 0x0B, 0xF6, 0xFE, 0x01, 0xFB, 0xEE, 0xF6, 0x0B, 0xE9, 
0xF9, 0x24, 0xED, 0xF9, 0x07, 0xE9, 0xF7, 0xCE, 0xE3, 0xFC, 0xD9, 0xEB, 0xF3, 0xD9, 0xFC, 0xF2, 
0xED, 0xFB, 0xE1, 0xE6, 0x0A, 0x01, 0xFF, 0x28, 0x07, 0xE6, 0x12, 0x04, 0xF1, 0x03, 0x08, 0xE4, 
0x04, 0x14, 0x2C, 0xCA, 0xF0, 0x2D, 0xE0, 0x13, 0x1F, 0xEF, 0x13, 0xFD, 0xFB, 0x08, 0xFF, 0x04, 
0x05, 0xEC, 0xFE, 0xF3, 0x0B, 0xFF, 0x0A, 0x01, 0x09, 0xF6, 0xFD, 0xFE, 0xEB, 0x11, 0x08, 0x03, 
0x0C, 0x07, 0x05, 0x05, 0x0D, 0x0A, 0xFA, 0xE9, 0x06, 0xFD, 0xF2, 0x00, 0x00, 0xF3, 0xF4, 0x1B, 
0xB8, 0x0B, 0x2C, 0xCD, 0x2B, 0x1E, 0xD3, 0x1E, 0x05, 0xEF, 0xE4, 0x0E, 0x19, 0x14, 0xFF, 0x1E, 
0x0D, 0x04, 0xEF, 0xFA, 0xFF, 0xFD, 0x01, 0xFB, 0x0F, 0x0D, 0xFD, 0xFF, 0xFA, 0xF5, 0xE8, 0xDF, 
0x09, 0xE8, 0xFC, 0xFA, 0x2D, 0x1A, 0x07, 0x2E, 0x37, 0xFC, 0x0C, 0x12, 0x0B, 0x03, 0x00, 0x02, 
0x0A, 0x08, 0xE7, 0xFB, 0x06, 0x01, 0xEB, 0xF2, 0x03, 0xFF, 0xFE, 0x03, 0x1B, 0x03, 0xF4, 0xEC, 
0xF1, 0xFD, 0xE9, 0xF1, 0x12, 0x13, 0x16, 0xF7, 0x06, 0x0B, 0x07, 0x04, 0xFB, 0x10, 0x07, 0xFA, 
0x03, 0x0D, 0xF8, 0xFB, 0x1B, 0xFF, 0xF4, 0xF7, 0xF4, 0x12, 0x06, 0x19, 0x00, 0x00, 0xFA, 0xFA, 
0xED, 0xF1, 0xFF, 0xD8, 0xDE, 0x07, 0x03, 0xE7, 0xF6, 0x1B, 0xF7, 0xFE, 0xF8, 0x14, 0x04, 0x02, 
0xFE, 0x02, 0x08, 0xFA, 0xFF, 0xF7, 0x05, 0xFF, 0xF3, 0xFD, 0x0A, 0x0D, 0xFB, 0x07, 0x07, 0xF8, 
0x02, 0x06, 0x0D, 0xF2, 0xEC, 0xFF, 0xFC, 0xFF, 0xFE, 0x00, 0x08, 0x02, 0x04, 0x11, 0x09, 0xFD, 
0xF3, 0xF5, 0x0C, 0x0B, 0x0A, 0x04, 0x26, 0x0C, 0x1C, 0x0A, 0xD6, 0x38, 0x19, 0xCB, 0x15, 0x02, 
0xEC, 0x05, 0xFC, 0xEE, 0x11, 0xFB, 0xED, 0x0D, 0x06, 0xF2, 0xEF, 0xFE, 0x1B, 0xE6, 0xF9, 0x0F, 
0xF2, 0xF9, 0x07, 0x19, 0xFB, 0xEB, 0xF8, 0xF6, 0x02, 0xEB, 0xF5, 0x04, 0xF9, 0xF3, 0x02, 0x09, 
0x02, 0x00, 0x0E, 0x0F, 0xFE, 0x12, 0xF3, 0xF8, 0x18, 0xFB, 0xF6, 0x0F, 0x05, 0xF1, 0xFD, 0x03, 
0x06, 0xFB, 0xFD, 0x06, 0x09, 0x05, 0x02, 0xF5, 0xEB, 0x17, 0xF6, 0xF9, 0x1D, 0xF5, 0x02, 0x10, 
0xF7, 0x10, 0x12, 0xF6, 0x14, 0x03, 0xDE, 0x05, 0x05, 0xFF, 0xF3, 0x13, 0xF3, 0xF2, 0x0E, 0xEC, 
0xEF, 0x0B, 0x17, 0x0E, 0xE0, 0x27, 0x0C, 0xD2, 0x10, 0x0E, 0xED, 0xFF, 0x02, 0x04, 0x03, 0xF6, 
0xF9, 0xFE, 0xF4, 0xF5, 0x03, 0xFE, 0xFD, 0x07, 0xF4, 0x06, 0x09, 0x02, 0xFC, 0xFE, 0x03, 0xF9, 
0x04, 0x11, 0xF1, 0x02, 0x05, 0xFE, 0x0B, 0x05, 0xF0, 0x0E, 0x04, 0xF0, 0x09, 0x0B, 0xF6, 0x37, 
0x0D, 0xC1, 0x31, 0xFD, 0xBA, 0x1D, 0x03, 0xE4, 0x03, 0xF6, 0xFF, 0x1B, 0x19, 0x17, 0x12, 0xFD, 
0xEB, 0xFD, 0xE5, 0x07, 0x07, 0xF8, 0x08, 0x04, 0xFA, 0x01, 0xFA, 0xF9, 0xE0, 0xF4, 0xF5, 0xEC, 
0x0A, 0x0A, 0x12, 0x0E, 0x00, 0x10, 0x04, 0xF4, 0xF0, 0x01, 0xF2, 0xE8, 0x14, 0x13, 0x1E, 0x16, 
0x13, 0x22, 0x0F, 0x08, 0x09, 0x02, 0xE9, 0xF9, 0x04, 0xF5, 0x09, 0xFD, 0xFD, 0x01, 0xF0, 0xF7, 
0xE2, 0xFD, 0x02, 0xF8, 0x05, 0x10, 0x0B, 0xF9, 0xF6, 0xEF, 0xF4, 0xF5, 0xF1, 0xFB, 0x04, 0xFF, 
0xF7, 0x0C, 0x01, 0xE9, 0x02, 0xF6, 0xED, 0xF8, 0xF4, 0xF7, 0xF0, 0xE6, 0xEA, 0xE8, 0xDB, 0x07, 
0xFB, 0xF2, 0xFE, 0x09, 0x0D, 0x04, 0x0F, 0x15, 0xFC, 0xEC, 0xF0, 0xF3, 0xF6, 0x0A, 0xF6, 0xF7, 
0x0D, 0xF4, 0xF4, 0xFE, 0xF9, 0xF5, 0xF6, 0xFB, 0xF5, 0xFE, 0xFD, 0xF3, 0x09, 0x11, 0x19, 0x1C, 
0x0A, 0x1E, 0x1A, 0x01, 0x10, 0x05, 0xFB, 0xFB, 0xE9, 0xFD, 0xFD, 0xEF, 0xFC, 0xFA, 0x01, 0x01, 
0xF1, 0xFA, 0x0A, 0xEB, 0xFE, 0x01, 0xE8, 0x00, 0xEA, 0x43, 0x40, 0x34, 0x00, 0xFF, 0x08, 0xE3, 
0x04, 0xFA, 0xFB, 0x0D, 0x16, 0xC5, 0x10, 0x30, 0xFE, 0x01, 0x03, 0x01, 0x05, 0x10, 0x14, 0x04, 
0xFF, 0x04, 0xFD, 0xFC, 0xF3, 0xF7, 0xFD, 0x00, 0x08, 0x02, 0xFB, 0xFD, 0x03, 0x00, 0x06, 0x06, 
0x05, 0xFC, 0x04, 0x04, 0x04, 0xF8, 0x06, 0x04, 0x09, 0x03, 0xFB, 0x09, 0x03, 0xF9, 0xF7, 0xFB, 
0xFE, 0xFE, 0x0D, 0x08, 0x06, 0x00, 0x03, 0x00, 0xFF, 0x0A, 0xFA, 0x07, 0xFF, 0xFE, 0xFE, 0xF7, 
0xF7, 0x02, 0x0D, 0x08, 0x02, 0xF6, 0xF6, 0xFA, 0xF7, 0x03, 0x07, 0x08, 0xFF, 0xF8, 0xFC, 0xF9, 
0xF9, 0xF7, 0xF4, 0x00, 0x17, 0x1F, 0x11, 0x0D, 0x02, 0x00, 0xFC, 0xFE, 0xFE, 0xFC, 0xFE, 0x04, 
0x06, 0x07, 0x0F, 0x02, 0xF2, 0xE9, 0xE7, 0xEE, 0xEB, 0xF4, 0xF7, 0xFD, 0x01, 0x01, 0x01, 0xFC, 
0x03, 0x03, 0x06, 0x01, 0x08, 0x03, 0x02, 0xF2, 0xFA, 0xF9, 0xF6, 0xF9, 0xF4, 0xFF, 0x02, 0x01, 
0xFC, 0x02, 0x06, 0x0A, 0x0F, 0x06, 0xF9, 0xF9, 0xFB, 0xF4, 0xFC, 0xFD, 0x02, 0x01, 0xFC, 0x00, 
0x0B, 0x06, 0x0A, 0x04, 0x05, 0xFE, 0x02, 0xF9, 0xFF, 0xF3, 0xFC, 0xFC, 0x0A, 0x03, 0x11, 0x04, 
0x0F, 0xFB, 0xFC, 0x01, 0x09, 0xFE, 0xF7, 0xFE, 0xF4, 0xFC, 0x0A, 0xFC, 0xF7, 0xF8, 0xFC, 0x00, 
0x02, 0x13, 0x02, 0x02, 0xFF, 0xFC, 0xFE, 0x01, 0xF5, 0xFA, 0xFF, 0x0A, 0x06, 0xFE, 0x00, 0x07, 
0x01, 0x07, 0x13, 0x05, 0xFC, 0xFE, 0xFA, 0xFB, 0x02, 0xFB, 0x09, 0x0A, 0x13, 0x04, 0x09, 0x0D, 
0x03, 0xFF, 0x03, 0x08, 0xF8, 0xFB, 0x03, 0x05, 0xFE, 0xFC, 0xF7, 0xED, 0xF7, 0x04, 0x06, 0x0A, 
0xFE, 0xFF, 0xFE, 0x00, 0x05, 0xFD, 0xFF, 0xFF, 0xFE, 0xFE, 0x02, 0x02, 0xF7, 0xF7, 0x03, 0x0C, 
0x0E, 0x08, 0x07, 0x07, 0x01, 0x0D, 0x06, 0x05, 0x04, 0x04, 0x07, 0xFD, 0x02, 0xF9, 0xF3, 0xFD, 
0x0B, 0x09, 0x09, 0x02, 0x03, 0x00, 0xFF, 0x02, 0x02, 0xFE, 0x01, 0xFA, 0xF8, 0xFF, 0x10, 0x12, 
0x14, 0x15, 0x09, 0x06, 0x05, 0x00, 0xFF, 0x01, 0x00, 0x00, 0x00, 0x00, 0x00, 0x00, 0x00, 0x00, 
0x00, 0x00, 0x00, 0x00, 0x00, 0x00, 0x00, 0x00, 0x00, 0x00, 0x00, 0x00, 0x00, 0x00, 0x00, 0x00, 
0x00, 0x00, 0x00, 0x00, 0x00, 0x00, 0x00, 0x00, 0x00, 0x00, 0x00, 0x00, 0x00, 0x00, 0x00, 0x00, 
0x00, 0x00, 0x00, 0x00, 0x00, 0x00, 0x00, 0x00, 0x00, 0x00, 0x00, 0x00, 0x00, 0x00, 0x00, 0x00, 
0x00, 0x00, 0x00, 0x00, 0x00, 0x00, 0x00, 0x00, 0x00, 0x00, 0x00, 0x00, 0x00, 0x00, 0x00, 0x00, 
0x00, 0x00, 0x00, 0x00, 0x00, 0x00, 0x00, 0x00, 0x00, 0x00, 0x00, 0x00, 0x00, 0x00, 0x00, 0x00, 
0x00, 0x00, 0x00, 0x00, 0x00, 0x00, 0x00, 0x00, 0x00, 0x00, 0x00, 0x00, 0x00, 0x00, 0x00, 0x00, 
0x00, 0x00, 0x00, 0x00, 0x00, 0x00, 0x00, 0x00, 0x00, 0x00, 0x00, 0x00, 0x00, 0x00, 0x00, 0x00, 
0x00, 0x00, 0x00, 0x00, 0x00, 0x00, 0x00, 0x00, 0x00, 0x00, 0x00, 0x00, 0x00, 0x00, 0x00, 0x00, 
0x00, 0x00, 0x00, 0x00, 0x00, 0x00, 0x00, 0x00, 0x00, 0x00, 0x00, 0x00, 0x00, 0x00, 0x00, 0x00, 
0x00, 0x00, 0x00, 0x00, 0x00, 0x00, 0x00, 0x00, 0x00, 0x00, 0x00, 0x00, 0x00, 0x00, 0x00, 0x00, 
0x00, 0x00, 0x00, 0x00, 0x00, 0x00, 0x00, 0x00, 0x00, 0x00, 0x00, 0x00, 0x00, 0x00, 0x00, 0x00, 
0x00, 0x00, 0x00, 0x00, 0x00, 0x00, 0x00, 0x00, 0x00, 0x00, 0x00, 0x00, 0x00, 0x00, 0x00, 0x00, 
0x00, 0x00, 0x00, 0x00, 0x00, 0x00, 0x00, 0x00, 0x00, 0x00, 0x00, 0x00, 0x00, 0x00, 0x00, 0x00, 
0x00, 0x00, 0x00, 0x00, 0x00, 0x00, 0x00, 0x00, 0x00, 0x00, 0x00, 0x00, 0x00, 0x00, 0x00, 0x00, 
0x00, 0x00, 0x00, 0x00, 0x00, 0x00, 0x00, 0x00, 0x00, 0x00, 0x00, 0x00, 0x00, 0x00, 0x00, 0x00, 
0x00, 0x00, 0x00, 0x00, 0x00, 0x00, 0x00, 0x00, 0x00, 0x00, 0x00, 0x00, 0x00, 0x00, 0x00, 0x00, 
0x00, 0x00, 0x00, 0x00, 0x00, 0x00, 0x00, 0x00, 0xFA, 0xFC, 0xFE, 0x02, 0x01, 0x00, 0x01, 0x06, 
0x05, 0x03, 0xFE, 0x04, 0x04, 0x05, 0x05, 0x01, 0x08, 0xF9, 0xFC, 0xF7, 0xFA, 0xF8, 0xFC, 0xFB, 
0xFC, 0x00, 0x03, 0xFD, 0x04, 0x05, 0x0E, 0x0F, 0x18, 0x22, 0x03, 0x06, 0x05, 0x00, 0x02, 0x02, 
0x02, 0x00, 0x00, 0xFB, 0xFA, 0xFE, 0x01, 0xFD, 0xF1, 0x05, 0xEC, 0x02, 0x0A, 0xFA, 0xFD, 0x06, 
0x02, 0xFD, 0x01, 0xFE, 0xFC, 0x00, 0x01, 0x02, 0x01, 0x04, 0x00, 0x00, 0x02, 0x07, 0x02, 0xFD, 
0xFD, 0xFF, 0xFC, 0x03, 0x07, 0x0C, 0x09, 0x05, 0x00, 0x00, 0xFF, 0x06, 0xFE, 0x02, 0x05, 0x05, 
0x05, 0x06, 0x02, 0x04, 0x06, 0x08, 0x04, 0x02, 0x0A, 0x08, 0x09, 0x0D, 0x0B, 0x02, 0x04, 0x00, 
0xFB, 0xFD, 0x00, 0x01, 0x04, 0x04, 0x04, 0x05, 0x00, 0x05, 0xFE, 0x08, 0x02, 0x06, 0xF8, 0xFB, 
0x01, 0xFB, 0x00, 0xFF, 0x01, 0x03, 0x09, 0x05, 0x01, 0xFD, 0x02, 0x02, 0xFF, 0x06, 0x04, 0x04, 
0x03, 0x07, 0x05, 0x02, 0x01, 0xFE, 0x02, 0xFC, 0x00, 0xFD, 0x04, 0xFC, 0xF9, 0xF3, 0xF4, 0xF7, 
0xE2, 0xFC, 0x00, 0xFF, 0x04, 0x00, 0x03, 0x02, 0x00, 0xF9, 0xF3, 0xF2, 0xF1, 0xF1, 0xF5, 0xF1, 
0xF7, 0xEF, 0xF9, 0x02, 0x07, 0x0B, 0x05, 0x01, 0xFF, 0xFD, 0xF8, 0xFF, 0xFD, 0x05, 0x04, 0x04, 
0x00, 0x06, 0x0A, 0xFC, 0xFC, 0x00, 0xFE, 0x03, 0x05, 0x06, 0x09, 0x00, 0xFC, 0x00, 0x06, 0x0D, 
0x0C, 0x0B, 0x07, 0x07, 0x01, 0x01, 0x05, 0x00, 0x05, 0x05, 0xFE, 0xFB, 0x03, 0x01, 0x02, 0xFE, 
0x00, 0xF6, 0xF9, 0xF6, 0xF7, 0xFE, 0xF9, 0xFE, 0xFD, 0xF9, 0x02, 0x05, 0x02, 0x02, 0x04, 0x04, 
0x03, 0xFC, 0xFA, 0xFC, 0xFB, 0xEF, 0x0A, 0x02, 0x04, 0x03, 0x01, 0x06, 0x0D, 0x03, 0x03, 0x08, 
0x0D, 0x0C, 0x0D, 0x12, 0x0D, 0x07, 0x10, 0x03, 0xFC, 0xF7, 0xFF, 0x04, 0x00, 0xFC, 0xFB, 0xFB, 
0xFE, 0x01, 0xF9, 0xF3, 0xF6, 0xFE, 0xF2, 0xF0, 0x00, 0x00, 0x00, 0x00, 0x00, 0x00, 0x00, 0x00, 
0x00, 0x00, 0x00, 0x00, 0x00, 0x00, 0x00, 0x00, 0x00, 0x00, 0x00, 0x00, 0x00, 0x00, 0x00, 0x00, 
0x00, 0x00, 0x00, 0x00, 0x00, 0x00, 0x00, 0x00, 0x00, 0x00, 0x00, 0x00, 0x00, 0x00, 0x00, 0x00, 
0x00, 0x00, 0x00, 0x00, 0x00, 0x00, 0x00, 0x00, 0x00, 0x00, 0x00, 0x00, 0x00, 0x00, 0x00, 0x00, 
0x00, 0x00, 0x00, 0x00, 0x00, 0x00, 0x00, 0x00, 0x00, 0x00, 0x00, 0x00, 0x00, 0x00, 0x00, 0x00, 
0x00, 0x00, 0x00, 0x00, 0x00, 0x00, 0x00, 0x00, 0x00, 0x00, 0x00, 0x00, 0x00, 0x00, 0x00, 0x00, 
0x00, 0x00, 0x00, 0x00, 0x00, 0x00, 0x00, 0x00, 0x00, 0x00, 0x00, 0x00, 0x00, 0x00, 0x00, 0x00, 
0x00, 0x00, 0x00, 0x00, 0x00, 0x00, 0x00, 0x00, 0x00, 0x00, 0x00, 0x00, 0x00, 0x00, 0x00, 0x00, 
0x00, 0x00, 0x00, 0x00, 0x00, 0x00, 0x00, 0x00, 0x00, 0x00, 0x00, 0x00, 0x00, 0x00, 0x00, 0x00, 
0x00, 0x00, 0x00, 0x00, 0x00, 0x00, 0x00, 0x00, 0x00, 0x00, 0x00, 0x00, 0x00, 0x00, 0x00, 0x00, 
0x00, 0x00, 0x00, 0x00, 0x00, 0x00, 0x00, 0x00, 0x00, 0x00, 0x00, 0x00, 0x00, 0x00, 0x00, 0x00, 
0x00, 0x00, 0x00, 0x00, 0x00, 0x00, 0x00, 0x00, 0x00, 0x00, 0x00, 0x00, 0x00, 0x00, 0x00, 0x00, 
0x00, 0x00, 0x00, 0x00, 0x00, 0x00, 0x00, 0x00, 0x00, 0x00, 0x00, 0x00, 0x00, 0x00, 0x00, 0x00, 
0x00, 0x00, 0x00, 0x00, 0x00, 0x00, 0x00, 0x00, 0x00, 0x00, 0x00, 0x00, 0x00, 0x00, 0x00, 0x00, 
0x00, 0x00, 0x00, 0x00, 0x00, 0x00, 0x00, 0x00, 0x00, 0x00, 0x00, 0x00, 0x00, 0x00, 0x00, 0x00, 
0x00, 0x00, 0x00, 0x00, 0x00, 0x00, 0x00, 0x00, 0x00, 0x00, 0x00, 0x00, 0x00, 0x00, 0x00, 0x00, 
0x00, 0x00, 0x00, 0x00, 0x00, 0x00, 0x00, 0x00, 0x00, 0x00, 0x00, 0x00, 0x00, 0x00, 0x00, 0x00, 
0x00, 0x00, 0x00, 0x00, 0x00, 0x00, 0x00, 0x00, 0xFD, 0xFB, 0xFE, 0x04, 0x05, 0x05, 0x08, 0x03, 
0x00, 0x02, 0xFE, 0x04, 0x08, 0x0B, 0x0C, 0x0D, 0x11, 0x0C, 0x0B, 0x08, 0xF9, 0xFD, 0xFF, 0x00, 
0x00, 0x04, 0x01, 0x05, 0xFF, 0x07, 0x03, 0x06, 0xFD, 0x03, 0xF7, 0xF3, 0x09, 0x02, 0x05, 0x01, 
0xFF, 0xF4, 0xFA, 0xF9, 0x01, 0xFA, 0x01, 0x09, 0x0C, 0x06, 0x03, 0xEE, 0xFB, 0xFF, 0x0A, 0x0A, 
0x02, 0xFE, 0xFE, 0x01, 0xFB, 0xF9, 0xFA, 0x01, 0xFE, 0x02, 0x03, 0x00, 0xF6, 0x06, 0x04, 0xFE, 
0xFF, 0xFC, 0xF4, 0xF6, 0xFA, 0xFD, 0x08, 0x10, 0x0B, 0x03, 0x05, 0x03, 0xFA, 0x05, 0x03, 0x00, 
0xFD, 0xFE, 0x02, 0x04, 0x04, 0x09, 0x0E, 0x03, 0xFF, 0xF7, 0xF3, 0xF4, 0xF2, 0xF8, 0x1D, 0x04, 
0x02, 0x02, 0x05, 0x07, 0x0B, 0x08, 0x06, 0x01, 0xFD, 0xFF, 0xF7, 0xFE, 0xFD, 0x00, 0x02, 0x00, 
0xFB, 0xF8, 0xFC, 0xFE, 0x05, 0x08, 0x09, 0x09, 0x06, 0x05, 0x05, 0x00, 0xF7, 0xFB, 0x02, 0xF3, 
0x09, 0x05, 0x01, 0xFE, 0x02, 0xFD, 0xFE, 0x05, 0x02, 0x02, 0x00, 0xFD, 0xFE, 0x03, 0x05, 0x03, 
0x06, 0xFB, 0xF3, 0xF3, 0xF7, 0xFC, 0x00, 0xFF, 0x02, 0xFE, 0x00, 0xF8, 0xFB, 0x03, 0x09, 0xFF, 
0x01, 0xFE, 0x03, 0x01, 0x01, 0x00, 0xFA, 0x01, 0xFC, 0xF5, 0xF3, 0xF7, 0xFB, 0xFC, 0x03, 0x05, 
0x01, 0x00, 0x01, 0x02, 0xFB, 0xFF, 0xFD, 0x01, 0x06, 0xFA, 0x00, 0x01, 0xFF, 0x02, 0x02, 0x09, 
0x01, 0x00, 0x03, 0x03, 0xF4, 0xFE, 0xFC, 0xFB, 0xFE, 0x00, 0x05, 0x08, 0x02, 0x02, 0x05, 0x01, 
0x04, 0x06, 0x10, 0x0E, 0x0D, 0x0F, 0x03, 0x03, 0xF5, 0xF3, 0xFC, 0xFF, 0x04, 0x09, 0x08, 0x08, 
0x0A, 0x06, 0xFD, 0xF1, 0xF7, 0xEF, 0xFC, 0x0A, 0x05, 0x05, 0x06, 0x00, 0x02, 0x08, 0x08, 0x01, 
0x03, 0x07, 0x03, 0xFC, 0x02, 0xFC, 0xFC, 0xF0, 0xFD, 0x03, 0x12, 0x07, 0x07, 0x04, 0xFD, 0xF3, 
0xFC, 0x00, 0x10, 0x0F, 0x12, 0x05, 0x11, 0xF9, 0xFE, 0xF7, 0xFE, 0xFE, 0xF7, 0xF9, 0xFF, 0x01, 
0xFE, 0xF9, 0xFA, 0xFC, 0x02, 0x01, 0x01, 0x03, 0x01, 0xE7, 0xE8, 0xF4, 0x01, 0x04, 0xFD, 0x03, 
0x08, 0x0E, 0x0B, 0x09, 0x08, 0x04, 0x00, 0x00, 0x04, 0x03, 0xFA, 0xF8, 0xF6, 0xF3, 0x06, 0x07, 
0x04, 0x02, 0x03, 0x03, 0x04, 0xFF, 0xFE, 0xFE, 0xFE, 0x00, 0x03, 0xFC, 0xFF, 0xEB, 0xFD, 0x07, 
0x09, 0x03, 0x00, 0x04, 0x04, 0xFE, 0xFC, 0x02, 0x05, 0xFE, 0x00, 0x08, 0xFB, 0xFC, 0x08, 0x01, 
0x03, 0x06, 0x02, 0x00, 0xFF, 0x02, 0x05, 0x03, 0x03, 0x05, 0x05, 0x00, 0x00, 0x11, 0x0F, 0x07, 
0x06, 0x02, 0x00, 0xFD, 0xFD, 0xFA, 0xF9, 0xFE, 0xFD, 0x04, 0x02, 0x01, 0x02, 0xFF, 0x0C, 0x0C, 
0x0C, 0x00, 0xFF, 0x02, 0x02, 0x02, 0x03, 0x00, 0xFB, 0xFE, 0xFF, 0x02, 0x03, 0x06, 0x00, 0x0C, 
0x0D, 0x11, 0x09, 0xFE, 0x02, 0x01, 0xFE, 0xFE, 0x02, 0x01, 0x02, 0x01, 0x04, 0x04, 0x06, 0x07, 
0xF9, 0xEB, 0x03, 0x03, 0x01, 0x02, 0xFF, 0xFB, 0x01, 0x03, 0x00, 0xFF, 0x03, 0xFD, 0xF6, 0x04, 
0xF8, 0x09, 0xFE, 0xF6, 0xF1, 0xFB, 0xF8, 0xFD, 0xFF, 0x03, 0x0A, 0x0C, 0x03, 0xFD, 0x00, 0xFF, 
0x01, 0x00, 0xFF, 0xF8, 0x0E, 0x0D, 0xF4, 0xF6, 0x02, 0x04, 0x03, 0x04, 0x02, 0x00, 0xFA, 0x01, 
0x05, 0xFC, 0x01, 0x06, 0xFD, 0x06, 0x06, 0x03, 0x05, 0x0A, 0x06, 0x05, 0x05, 0x01, 0xF8, 0x01, 
0x08, 0x05, 0x02, 0x06, 0xF2, 0xF7, 0x02, 0xFF, 0xF8, 0x01, 0x06, 0x06, 0xFD, 0x01, 0x05, 0x0C, 
0x06, 0x02, 0xFD, 0x00, 0xFD, 0xFB, 0x07, 0x19, 0x07, 0xF6, 0xF9, 0xFC, 0xFE, 0xFD, 0x01, 0x04, 
0x01, 0x05, 0x03, 0x02, 0x00, 0x02, 0xFE, 0x0D, 0x30, 0x28, 0x0D, 0x05, 0x00, 0x05, 0x03, 0xFC, 
0xFF, 0x02, 0x03, 0x00, 0x01, 0x06, 0xFB, 0x0E, 0x1B, 0x06, 0x01, 0xFC, 0x00, 0x01, 0xFF, 0xFF, 
0x01, 0x02, 0x04, 0xFD, 0xF9, 0xFA, 0xFA, 0xFF, 0xFE, 0xFC, 0xFE, 0x00, 0xFF, 0xF4, 0xF8, 0x0C, 
0xFF, 0xF5, 0x01, 0x0E, 0x04, 0x07, 0x03, 0x01, 0x03, 0x0D, 0x07, 0x08, 0x04, 0x03, 0x02, 0x06, 
0x00, 0xF7, 0xF4, 0xFF, 0x03, 0x05, 0xFF, 0x01, 0xFE, 0x07, 0xFF, 0x03, 0xFF, 0x00, 0xFF, 0x05, 
0x05, 0x0A, 0xF2, 0xF8, 0x16, 0x00, 0xFD, 0x0A, 0x0B, 0x01, 0x0B, 0x05, 0xFD, 0x01, 0x02, 0xFD, 
0xFD, 0xFF, 0x07, 0x09, 0x0A, 0x00, 0xF7, 0x01, 0x02, 0xF7, 0x00, 0x04, 0xFC, 0xF9, 0xFF, 0x04, 
0xFF, 0xF2, 0x02, 0x18, 0x19, 0x0A, 0x01, 0xFC, 0xFB, 0xFC, 0xFE, 0x01, 0xFF, 0x03, 0xFF, 0x02, 
0xFF, 0xFC, 0xFA, 0x07, 0x03, 0xF8, 0xF7, 0x02, 0x03, 0xFA, 0xFF, 0xFC, 0xFC, 0xFB, 0x03, 0x03, 
0x00, 0xFC, 0xFF, 0x01, 0x01, 0x04, 0x01, 0xF9, 0xFC, 0xFF, 0x03, 0x02, 0x08, 0x01, 0xF9, 0x00, 
0x02, 0x00, 0xF9, 0xFE, 0x01, 0x07, 0x04, 0xF4, 0x01, 0x08, 0x0B, 0x07, 0x05, 0x03, 0x03, 0x00, 
0x00, 0x04, 0x03, 0xFE, 0x01, 0x0A, 0x0A, 0xF3, 0x03, 0x06, 0x00, 0xFC, 0x08, 0x02, 0x00, 0x02, 
0xF7, 0x02, 0xFD, 0x01, 0x09, 0x05, 0xFE, 0x03, 0x1C, 0xED, 0xEB, 0xFA, 0xFD, 0x00, 0x05, 0x04, 
0x02, 0x03, 0xFF, 0x04, 0x05, 0x02, 0x04, 0xFE, 0xFB, 0xF1, 0xF8, 0xF4, 0x00, 0x02, 0xF7, 0xFE, 
0x00, 0xFF, 0x02, 0x02, 0xFF, 0xFF, 0x01, 0x02, 0xF9, 0xFD, 0xF8, 0xF9, 0x02, 0x0A, 0x0C, 0x00, 
0xFC, 0xFE, 0xFD, 0x03, 0xFE, 0xFC, 0xFE, 0x06, 0xFC, 0xF4, 0xF0, 0x0C, 0x24, 0xF8, 0xF4, 0xFD, 
0xFF, 0x04, 0x05, 0x04, 0x04, 0xFD, 0xFD, 0xFC, 0x02, 0x08, 0x01, 0x0A, 0x03, 0xFB, 0xFD, 0x01, 
0x06, 0x03, 0x01, 0xFD, 0xFE, 0xFB, 0x02, 0xFD, 0xFB, 0x00, 0x06, 0x01, 0xEB, 0xEF, 0x26, 0x16, 
0xFF, 0xFE, 0x01, 0x00, 0x03, 0x01, 0xFA, 0x04, 0x01, 0x09, 0x01, 0xFF, 0xFB, 0x0F, 0x0E, 0x02, 
0x06, 0xF8, 0xF7, 0xFB, 0xF6, 0xFA, 0x00, 0x04, 0xF7, 0xF7, 0xFB, 0xF8, 0xF6, 0xF6, 0xFB, 0xFC, 
0xFE, 0xFC, 0xFF, 0xFC, 0xFF, 0x00, 0xFE, 0xFD, 0xFD, 0xF9, 0xFC, 0xFE, 0xFE, 0xFE, 0xFF, 0xFE, 
0xFE, 0xFE, 0xFE, 0xFF, 0xFF, 0x00, 0x01, 0x01, 0x02, 0x02, 0x0F, 0x05, 0x05, 0x05, 0x05, 0x05, 
0x04, 0x03, 0x02, 0x02, 0x03, 0x03, 0x03, 0x04, 0x04, 0x06, 0x08, 0xEE, 0xF2, 0xF5, 0xF7, 0xF7, 
0xF9, 0xFC, 0x00, 0x00, 0x02, 0xFF, 0x00, 0x01, 0xFF, 0xFE, 0x01, 0x02, 0xFE, 0x06, 0x01, 0x08, 
0x03, 0x03, 0x05, 0x04, 0x08, 0x06, 0x0A, 0x01, 0x07, 0x03, 0x02, 0x04, 0x01, 0xFA, 0xF8, 0xFB, 
0xFF, 0xFF, 0xFE, 0x00, 0x02, 0x00, 0xFF, 0xFA, 0x00, 0xFF, 0xFF, 0xFF, 0xF8, 0xFB, 0x07, 0x0E, 
0x07, 0x04, 0x07, 0x06, 0x03, 0x05, 0x05, 0x03, 0x08, 0x09, 0x08, 0x04, 0x0B, 0x09, 0x07, 0xF8, 
0xF8, 0xFB, 0xFE, 0x02, 0xFF, 0x01, 0x04, 0x04, 0x02, 0xFE, 0x00, 0xFC, 0xFD, 0x00, 0x00, 0xFA, 
0xFE, 0xFB, 0xFB, 0xF6, 0xFA, 0xF9, 0xF9, 0xF9, 0xFB, 0xFD, 0xF7, 0xF8, 0xF2, 0xF1, 0xF2, 0xF3, 
0xF6, 0xFD, 0xF5, 0xF4, 0xF6, 0xF7, 0xFF, 0xFF, 0x00, 0x02, 0x00, 0xFC, 0xFB, 0xFB, 0xFA, 0x00, 
0xFC, 0xFD, 0x05, 0xFB, 0xF4, 0xF7, 0xFA, 0xFA, 0xFA, 0xFB, 0xF8, 0xF5, 0xF8, 0xF9, 0xFA, 0xFA, 
0xFB, 0xFD, 0xFD, 0x0C, 0x09, 0x06, 0x07, 0x06, 0x08, 0x0B, 0x09, 0x09, 0x08, 0x08, 0x09, 0x08, 
0x0B, 0x0A, 0x08, 0x08, 0xFD, 0x06, 0x0C, 0x11, 0x0F, 0x11, 0x0F, 0x0E, 0x0E, 0x10, 0x10, 0x0F, 
0x11, 0x11, 0x13, 0x11, 0x14, 0xFF, 0xFE, 0xF9, 0xF8, 0xFB, 0xF8, 0xFA, 0xFD, 0xFD, 0xFF, 0x01, 
0x02, 0x05, 0x07, 0x06, 0x06, 0x08, 0xF8, 0xFE, 0xFD, 0xF9, 0xFA, 0xF5, 0xF1, 0xF6, 0xF8, 0xF8, 
0xF5, 0xF7, 0xF9, 0xF5, 0xF9, 0xF4, 0xF6, 0x02, 0x02, 0x00, 0x01, 0x02, 0x00, 0x00, 0xFF, 0x01, 
0x01, 0xFF, 0xFE, 0xFC, 0xFC, 0xFE, 0x01, 0x03, 0x0A, 0x0A, 0x07, 0x00, 0xFF, 0xFB, 0xF0, 0xF5, 
0xFB, 0xFF, 0x00, 0x07, 0x01, 0x01, 0xFF, 0xFB, 0xFC, 0xF3, 0xDF, 0xEE, 0xF1, 0xFA, 0xFD, 0x00, 
0x02, 0x03, 0x04, 0x09, 0x04, 0x07, 0x09, 0x06, 0x03, 0x01, 0xF0, 0xF3, 0x06, 0x10, 0xFD, 0xFB, 
0x00, 0x07, 0x00, 0x00, 0x06, 0x03, 0xFF, 0xFE, 0xFD, 0xFE, 0xF3, 0xF4, 0x08, 0x17, 0x01, 0xFD, 
0x04, 0x04, 0x07, 0x05, 0x03, 0xFF, 0xFF, 0xFE, 0x01, 0x01, 0xFE, 0xFB, 0x01, 0xFC, 0xFC, 0x01, 
0x0D, 0x09, 0x04, 0x06, 0x07, 0xFF, 0xFB, 0x03, 0xFE, 0x00, 0xFD, 0xFC, 0x01, 0x02, 0x00, 0xFF, 
0x04, 0x05, 0x00, 0x02, 0x05, 0xFF, 0xFF, 0x00, 0xFE, 0xF9, 0xFB, 0xFD, 0xFE, 0x02, 0x07, 0x00, 
0x02, 0xFE, 0x01, 0x06, 0x02, 0x03, 0x03, 0xFD, 0xFF, 0xFC, 0x01, 0xFF, 0x00, 0xFA, 0x05, 0x11, 
0xF3, 0xEF, 0xF8, 0x03, 0x05, 0x04, 0x02, 0x01, 0x00, 0xFD, 0x00, 0x04, 0x00, 0x01, 0x00, 0x01, 
0x09, 0x0C, 0x0B, 0x03, 0x02, 0x03, 0x05, 0x01, 0x00, 0x02, 0x04, 0xFB, 0xFE, 0xFF, 0x02, 0x07, 
0x14, 0x04, 0xED, 0xEC, 0xEF, 0x02, 0x02, 0xFC, 0x01, 0x01, 0x05, 0xFE, 0x05, 0x04, 0x01, 0x07, 
0x04, 0x05, 0xFA, 0x0A, 0x1C, 0x11, 0x0F, 0x08, 0x09, 0x0B, 0x0A, 0x02, 0xFF, 0xFC, 0x02, 0x01, 
0x02, 0x04, 0x05, 0xFC, 0x00, 0xF6, 0x0A, 0x09, 0x07, 0x07, 0x04, 0x05, 0x03, 0xFF, 0x04, 0x01, 
0xFE, 0x02, 0xFF, 0xEE, 0xFB, 0xFF, 0x04, 0x03, 0x02, 0x05, 0x00, 0x01, 0x0C, 0x0A, 0x08, 0x04, 
0x02, 0x08, 0x08, 0x05, 0x07, 0x0C, 0x02, 0xF8, 0x04, 0x02, 0x02, 0xFD, 0xF9, 0xFB, 0xF5, 0xF7, 
0xFC, 0xFB, 0xFD, 0xFF, 0xFA, 0x01, 0x01, 0x24, 0x0F, 0x0E, 0x06, 0x08, 0x07, 0xFD, 0x03, 0x0E, 
0x0A, 0x09, 0x05, 0x04, 0xFF, 0xFE, 0x01, 0x03, 0x0F, 0x06, 0xFE, 0x06, 0x03, 0x03, 0x03, 0x06, 
0xFF, 0xFE, 0xFA, 0x01, 0x03, 0x03, 0xF9, 0x07, 0x00, 0x02, 0x00, 0x04, 0x03, 0x09, 0x0A, 0x03, 
0x01, 0xFC, 0xFF, 0xFC, 0xFA, 0xF4, 0xF7, 0xF7, 0xF7, 0x02, 0xFF, 0x00, 0x02, 0x00, 0xFF, 0xFE, 
0x01, 0x01, 0x00, 0xFD, 0x02, 0x04, 0x02, 0x04, 0x01, 0xFD, 0x03, 0x05, 0xF6, 0xF2, 0xF9, 0x04, 
0x02, 0x03, 0x00, 0xFE, 0xFF, 0xFB, 0xF8, 0xFD, 0xFB, 0xFE, 0x02, 0x37, 0x22, 0x15, 0x0D, 0x10, 
0x0B, 0x05, 0x01, 0xFF, 0x00, 0x02, 0x02, 0x01, 0xFF, 0xFB, 0xFA, 0xF7, 0x08, 0x08, 0x0C, 0x03, 
0x04, 0x03, 0xFF, 0x03, 0x08, 0x06, 0x05, 0x08, 0x06, 0x08, 0x0B, 0x0B, 0x0C, 0x02, 0xFF, 0x00, 
0x00, 0x02, 0x05, 0x04, 0x01, 0xFC, 0xF8, 0xFE, 0x00, 0x00, 0x03, 0x02, 0x04, 0x08, 0x08, 0x01, 
0x00, 0xFB, 0xF6, 0xF6, 0xFA, 0xFB, 0xFF, 0x01, 0x00, 0x00, 0xFC, 0xF8, 0xF6, 0xF8, 0xF2, 0x01, 
0x0E, 0x13, 0x0D, 0x04, 0x03, 0xFF, 0xFC, 0xFA, 0xFE, 0xFF, 0x04, 0x01, 0x06, 0x03, 0x05, 0x03, 
0x03, 0xFC, 0x01, 0x00, 0xFC, 0xFC, 0xFC, 0xFD, 0x03, 0x06, 0x04, 0x06, 0x02, 0x01, 0x05, 0x06, 
0x01, 0xFB, 0x01, 0x04, 0x06, 0x00, 0xFF, 0xFF, 0xFE, 0xFF, 0xFB, 0x02, 0x03, 0x05, 0x04, 0xFC, 
0xFD, 0x02, 0x06, 0x00, 0x03, 0x06, 0x06, 0x09, 0x0A, 0x04, 0x07, 0x07, 0xFE, 0xFF, 0xFE, 0xFD, 
0xFC, 0xF9, 0xFF, 0x0A, 0xFF, 0x05, 0x05, 0x03, 0x08, 0x03, 0x05, 0x02, 0x02, 0xFB, 0xFB, 0xFC, 
0xF9, 0xFC, 0x02, 0xFB, 0x03, 0x05, 0x04, 0x04, 0x00, 0x01, 0x04, 0x03, 0x04, 0x04, 0x02, 0x00, 
0xFF, 0xFE, 0x02, 0x04, 0x03, 0xEC, 0xEE, 0xFB, 0xFF, 0xFF, 0x03, 0x03, 0x02, 0x04, 0x04, 0x01, 
0x02, 0xFE, 0x01, 0x00, 0x02, 0x07, 0x00, 0xFB, 0xFE, 0xFF, 0x01, 0x00, 0x03, 0x05, 0x08, 0x02, 
0x01, 0x00, 0x02, 0x05, 0x08, 0x08, 0x03, 0xF1, 0xEE, 0xF1, 0xF7, 0xF9, 0xF6, 0xF6, 0xFA, 0xFF, 
0x01, 0xFF, 0xFD, 0x00, 0x00, 0x00, 0xFC, 0x00, 0x03, 0x03, 0x00, 0x00, 0xFA, 0xF0, 0xE7, 0xF9, 
0x14, 0xFE, 0x07, 0xEC, 0x02, 0x01, 0x02, 0xFD, 0xFC, 0x04, 0x03, 0x05, 0x05, 0x03, 0x05, 0x06, 
0x06, 0x05, 0xFF, 0x00, 0x00, 0x02, 0x00, 0xFB, 0xFA, 0xFA, 0xFE, 0xFC, 0xFA, 0xFD, 0x03, 0x08, 
0x08, 0x0A, 0xFF, 0xF5, 0xF0, 0xFF, 0x02, 0xFA, 0x0C, 0x02, 0x09, 0xFD, 0x02, 0x03, 0xFF, 0x03, 
0x00, 0xFD, 0x05, 0x01, 0xF7, 0x06, 0x02, 0x03, 0x06, 0x06, 0xFF, 0x02, 0xFF, 0x00, 0x02, 0xFD, 
0xF3, 0xF1, 0xF2, 0x0A, 0x18, 0x02, 0x03, 0xFC, 0xFC, 0xFD, 0x01, 0xFE, 0xFA, 0x03, 0x03, 0x04, 
0x02, 0xFA, 0xF8, 0xFA, 0x04, 0x08, 0x0E, 0x0F, 0x0E, 0x09, 0x00, 0x03, 0xFE, 0x00, 0xFF, 0xFF, 
0xFE, 0x00, 0x02, 0x07, 0x0A, 0x09, 0xFE, 0x06, 0x09, 0xFD, 0xF9, 0xF4, 0x00, 0xFE, 0xFF, 0x04, 
0x04, 0x02, 0x02, 0xFC, 0xF9, 0x02, 0x07, 0x0B, 0xF5, 0xFF, 0xF8, 0x06, 0xFD, 0x06, 0x05, 0x03, 
0xF7, 0xF7, 0xFF, 0x03, 0x05, 0xFC, 0x05, 0x0E, 0xEC, 0x09, 0xFF, 0x08, 0x01, 0xFD, 0x02, 0x05, 
0xFB, 0xFF, 0xFD, 0xFB, 0x08, 0xFC, 0xEB, 0xEF, 0x06, 0x29, 0xFA, 0x06, 0xFF, 0x04, 0xFF, 0x05, 
0x05, 0x02, 0x02, 0xFD, 0xFD, 0xFC, 0xFA, 0xFB, 0xFA, 0x05, 0x03, 0x01, 0xFA, 0x08, 0x03, 0xFF, 
0x06, 0xFF, 0x0A, 0x01, 0xFF, 0xFF, 0xFD, 0xFF, 0x02, 0x01, 0x05, 0x06, 0xF6, 0xFD, 0xFE, 0x02, 
0x03, 0x0A, 0x0A, 0x08, 0xFE, 0x01, 0xFA, 0xF7, 0xF6, 0xF1, 0xF7, 0xF6, 0x13, 0x15, 0xFF, 0x03, 
0xFD, 0x06, 0x01, 0x05, 0xFE, 0xFB, 0x00, 0x01, 0x04, 0x08, 0x02, 0x00, 0x07, 0x10, 0x0B, 0xFC, 
0x02, 0xFA, 0xFC, 0xF7, 0xFE, 0x01, 0xFF, 0xFF, 0x06, 0x08, 0x03, 0x03, 0x03, 0xF0, 0xEC, 0x07, 
0xFD, 0x03, 0xFA, 0x02, 0x02, 0x04, 0xF7, 0x00, 0xFD, 0xFD, 0xFA, 0xFD, 0x04, 0xFE, 0x00, 0xF7, 
0x03, 0x04, 0x04, 0x07, 0x07, 0xFD, 0x03, 0x00, 0xFC, 0xFA, 0xFF, 0x05, 0xFF, 0xF8, 0xF4, 0xFE, 
0x05, 0x0E, 0x0E, 0x0A, 0x0E, 0x0D, 0x0C, 0x0A, 0x12, 0x15, 0xFF, 0x04, 0xFE, 0xFE, 0x05, 0x08, 
0x03, 0x03, 0x03, 0x07, 0x05, 0x04, 0x06, 0x02, 0xFD, 0x00, 0x06, 0x03, 0xFD, 0x02, 0xFD, 0xFD, 
0x04, 0x06, 0xFE, 0xFF, 0xFE, 0x07, 0x0A, 0x02, 0x0A, 0xFF, 0x00, 0xF8, 0x00, 0xFF, 0x07, 0x03, 
0xFA, 0xFD, 0x06, 0x01, 0x00, 0x0C, 0x04, 0x01, 0x02, 0x00, 0x04, 0xFE, 0xFE, 0x09, 0xFC, 0x08, 
0x13, 0x0E, 0x05, 0x00, 0x03, 0x01, 0xF4, 0xF6, 0xF8, 0x00, 0x00, 0x07, 0x0B, 0xFE, 0xFE, 0x07, 
0x06, 0x04, 0xFE, 0xFE, 0xFC, 0x00, 0x03, 0xFF, 0x00, 0x02, 0xFF, 0x05, 0x04, 0x0B, 0x07, 0x06, 
0x00, 0x03, 0x02, 0x00, 0xFE, 0x01, 0x01, 0x0B, 0x0A, 0x0A, 0x04, 0x00, 0xF9, 0xFE, 0xFC, 0xF6, 
0x0B, 0x13, 0x12, 0x0A, 0x03, 0x06, 0x02, 0x05, 0x02, 0x03, 0x01, 0x00, 0xFE, 0xF7, 0xF2, 0xF4, 
0x0C, 0x0A, 0x07, 0xFA, 0xFB, 0x06, 0x03, 0x08, 0x04, 0x06, 0x06, 0xFE, 0x07, 0x04, 0x0C, 0xF6, 
0x10, 0x02, 0xFA, 0xF9, 0x02, 0xFB, 0xF5, 0xF5, 0xF6, 0x00, 0x05, 0xFB, 0x03, 0x03, 0x07, 0x08, 
0x01, 0x21, 0xFA, 0x09, 0x0C, 0x03, 0x01, 0x07, 0x07, 0x09, 0x02, 0x03, 0x04, 0x01, 0xFF, 0xFB, 
0xFE, 0x05, 0x09, 0xFB, 0xF7, 0xF2, 0xF6, 0xF8, 0x05, 0x04, 0xFF, 0x01, 0xFE, 0x03, 0x0B, 0x06, 
0x12, 0x10, 0x02, 0x14, 0xFE, 0xFC, 0xF9, 0xF8, 0x08, 0xFE, 0xF4, 0x01, 0x04, 0x05, 0xFA, 0xF5, 
0xF5, 0xF6, 0xFF, 0xFF, 0x08, 0x0C, 0x0A, 0xFE, 0xF7, 0x05, 0x0C, 0x0B, 0x05, 0x03, 0xFD, 0xF9, 
0xFD, 0xFF, 0x08, 0x0C, 0xFD, 0x04, 0xFB, 0x02, 0x00, 0xFE, 0x0D, 0x0F, 0xFC, 0xF1, 0xF0, 0x00, 
0xFD, 0xF3, 0xFC, 0xFB, 0xF5, 0x01, 0x01, 0xF7, 0xF1, 0xFE, 0x06, 0x01, 0xF7, 0xF5, 0xF8, 0xFF, 
0xFE, 0xF8, 0xF4, 0xF8, 0x02, 0x00, 0x0E, 0x17, 0x00, 0x00, 0x00, 0x00, 0x00, 0x00, 0x00, 0x00, 
0x00, 0x00, 0x00, 0x00, 0x00, 0x00, 0x00, 0x00, 0x00, 0x00, 0x00, 0x00, 0x00, 0x00, 0x00, 0x00, 
0x00, 0x00, 0x00, 0x00, 0x00, 0x00, 0x00, 0x00, 0x00, 0x00, 0x00, 0x00, 0x00, 0x00, 0x00, 0x00, 
0x00, 0x00, 0x00, 0x00, 0x00, 0x00, 0x00, 0x00, 0x00, 0x00, 0x00, 0x00, 0x00, 0x00, 0x00, 0x00, 
0x00, 0x00, 0x00, 0x00, 0x00, 0x00, 0x00, 0x00, 0x00, 0x00, 0x00, 0x00, 0x00, 0x00, 0x00, 0x00, 
0x00, 0x00, 0x00, 0x00, 0x00, 0x00, 0x00, 0x00, 0x00, 0x00, 0x00, 0x00, 0x00, 0x00, 0x00, 0x00, 
0x00, 0x00, 0x00, 0x00, 0x00, 0x00, 0x00, 0x00, 0x00, 0x00, 0x00, 0x00, 0x00, 0x00, 0x00, 0x00, 
0x00, 0x00, 0x00, 0x00, 0x00, 0x00, 0x00, 0x00, 0x00, 0x00, 0x00, 0x00, 0x00, 0x00, 0x00, 0x00, 
0x00, 0x00, 0x00, 0x00, 0x00, 0x00, 0x00, 0x00, 0x00, 0x00, 0x00, 0x00, 0x00, 0x00, 0x00, 0x00, 
0x00, 0x00, 0x00, 0x00, 0x00, 0x00, 0x00, 0x00, 0x00, 0x00, 0x00, 0x00, 0x00, 0x00, 0x00, 0x00, 
0x00, 0x00, 0x00, 0x00, 0x00, 0x00, 0x00, 0x00, 0x00, 0x00, 0x00, 0x00, 0x00, 0x00, 0x00, 0x00, 
0x00, 0x00, 0x00, 0x00, 0x00, 0x00, 0x00, 0x00, 0x00, 0x00, 0x00, 0x00, 0x00, 0x00, 0x00, 0x00, 
0x00, 0x00, 0x00, 0x00, 0x00, 0x00, 0x00, 0x00, 0x00, 0x00, 0x00, 0x00, 0x00, 0x00, 0x00, 0x00, 
0x00, 0x00, 0x00, 0x00, 0x00, 0x00, 0x00, 0x00, 0x00, 0x00, 0x00, 0x00, 0x00, 0x00, 0x00, 0x00, 
0x00, 0x00, 0x00, 0x00, 0x00, 0x00, 0x00, 0x00, 0x00, 0x00, 0x00, 0x00, 0x00, 0x00, 0x00, 0x00, 
0x00, 0x00, 0x00, 0x00, 0x00, 0x00, 0x00, 0x00, 0x00, 0x00, 0x00, 0x00, 0x00, 0x00, 0x00, 0x00, 
0x00, 0x00, 0x00, 0x00, 0x00, 0x00, 0x00, 0x00, 0x00, 0x00, 0x00, 0x00, 0x00, 0x00, 0x00, 0x00, 
0x00, 0x00, 0x00, 0x00, 0x00, 0x00, 0x00, 0x00, 0x00, 0x01, 0x02, 0x01, 0x06, 0x02, 0xFD, 0x06, 
0x05, 0x08, 0x05, 0x00, 0xFB, 0xFF, 0x00, 0x04, 0x03, 0x0A, 0xF7, 0x01, 0x03, 0xFE, 0xFD, 0x05, 
0x08, 0x04, 0x01, 0x05, 0x03, 0x00, 0x05, 0x07, 0x07, 0x0F, 0x02, 0xFF, 0xFB, 0x00, 0x03, 0xFF, 
0x02, 0x09, 0x0D, 0x0E, 0x08, 0xFC, 0xFD, 0x00, 0xFB, 0xFF, 0x09, 0xF8, 0x06, 0x08, 0xFB, 0x06, 
0x0B, 0xF4, 0xE3, 0xE7, 0xF2, 0x01, 0x0E, 0x13, 0x09, 0xFD, 0xFF, 0xF6, 0x01, 0x01, 0x03, 0xFD, 
0xFA, 0x04, 0x0A, 0x08, 0xFB, 0xF3, 0x00, 0x06, 0x06, 0x02, 0x01, 0x02, 0xFC, 0x00, 0xFF, 0x01, 
0x01, 0x04, 0xFF, 0xFB, 0x00, 0xFF, 0xFD, 0xFE, 0xF9, 0xF2, 0xF5, 0xF6, 0xFB, 0x03, 0x01, 0x01, 
0x07, 0x07, 0x08, 0x08, 0x03, 0xFE, 0xFE, 0xFD, 0x00, 0xF9, 0xF8, 0xF4, 0xF9, 0x02, 0x07, 0xFA, 
0x04, 0x06, 0x07, 0x01, 0x00, 0x00, 0x00, 0xFD, 0xFA, 0x00, 0x03, 0x06, 0x0B, 0x02, 0xFF, 0xFD, 
0xF9, 0xFD, 0x03, 0x02, 0x00, 0xFC, 0xFE, 0xFC, 0xFE, 0xF7, 0xFD, 0x09, 0x0B, 0x07, 0x07, 0x04, 
0x0C, 0x02, 0xFA, 0xFB, 0xFD, 0x03, 0x01, 0xFF, 0x02, 0x03, 0x05, 0x07, 0x04, 0x01, 0x02, 0x05, 
0x01, 0x10, 0xFC, 0x06, 0x07, 0x03, 0x00, 0xFC, 0xFB, 0xFF, 0x08, 0xFE, 0xF1, 0xFC, 0xFE, 0xFA, 
0xFD, 0x01, 0x06, 0x0B, 0x01, 0xFB, 0x05, 0x05, 0x03, 0x03, 0x01, 0x04, 0x01, 0x02, 0x05, 0x00, 
0x03, 0xFC, 0xFA, 0xFD, 0x08, 0x05, 0x0A, 0x04, 0xFF, 0x01, 0x01, 0xF8, 0xF2, 0xF0, 0xF5, 0x02, 
0x04, 0x02, 0x04, 0x08, 0x00, 0x04, 0xFA, 0xF7, 0x02, 0xFA, 0xEE, 0x03, 0x14, 0x11, 0x0C, 0x05, 
0xF6, 0xED, 0xFA, 0xFF, 0x08, 0x14, 0x04, 0x01, 0xFC, 0xFD, 0xF9, 0xFD, 0x02, 0x05, 0x07, 0xFC, 
0xFB, 0x04, 0x01, 0x03, 0x01, 0x05, 0xFC, 0xFF, 0x00, 0xFF, 0xFD, 0x01, 0x0A, 0x10, 0x0E, 0x06, 
0x03, 0xFD, 0xFE, 0xFF, 0xFA, 0xFD, 0xFA, 0x03, 0xFE, 0xFB, 0xFE, 0x01, 0x01, 0x04, 0x07, 0x01, 
0xFA, 0xFD, 0x04, 0x05, 0x00, 0xFC, 0xFE, 0xFB, 0xF6, 0x06, 0x04, 0xF9, 0xF7, 0x02, 0xFD, 0x00, 
0x04, 0x03, 0x07, 0x02, 0x01, 0xFF, 0x03, 0x06, 0x01, 0x08, 0xFE, 0x01, 0x06, 0x0A, 0x02, 0xFF, 
0xFB, 0xFC, 0xFA, 0xFF, 0xFE, 0xFB, 0xF5, 0x02, 0xF3, 0x04, 0xFD, 0xFD, 0xF6, 0xFC, 0x03, 0x01, 
0x15, 0x24, 0x0E, 0xF1, 0xF5, 0xFE, 0x02, 0x07, 0xFD, 0xFD, 0xFE, 0xF3, 0x04, 0xFF, 0xFB, 0xFE, 
0xF5, 0xF5, 0x08, 0x10, 0x04, 0xF9, 0xFD, 0x07, 0x08, 0x0A, 0x04, 0x04, 0xFE, 0x04, 0xFE, 0x00, 
0x00, 0x00, 0xFD, 0xFB, 0x02, 0x02, 0x04, 0x08, 0x0A, 0x0A, 0x01, 0x00, 0x00, 0xFA, 0x05, 0x02, 
0x00, 0x02, 0x00, 0x05, 0x0A, 0x02, 0x00, 0xFE, 0x02, 0x06, 0xFF, 0xF7, 0xF9, 0x02, 0x08, 0xFF, 
0xF9, 0xFD, 0x01, 0x05, 0x05, 0x0C, 0x0B, 0x04, 0xFF, 0xFF, 0x03, 0x06, 0x05, 0x02, 0xFF, 0x05, 
0x05, 0x07, 0xFE, 0x04, 0x05, 0x02, 0xFC, 0xFD, 0x09, 0xFF, 0xFD, 0x02, 0xFC, 0xFE, 0xFD, 0x04, 
0xF6, 0x08, 0x0A, 0x0C, 0x03, 0xEF, 0xF6, 0x00, 0x04, 0x00, 0x03, 0x06, 0x01, 0x00, 0x03, 0x02, 
0x02, 0x04, 0x01, 0x0A, 0x08, 0x0F, 0x0A, 0xFD, 0xF9, 0xF3, 0x02, 0x05, 0xFB, 0xF3, 0xFF, 0x00, 
0x05, 0x09, 0x00, 0x0C, 0x0D, 0x05, 0x02, 0xFE, 0xF9, 0x02, 0x0A, 0xFD, 0xF4, 0xFD, 0x01, 0x05, 
0xFF, 0xFC, 0xF9, 0xFC, 0xFE, 0x04, 0x02, 0x05, 0xFE, 0xF8, 0x01, 0x01, 0xF8, 0xF6, 0xFC, 0x09, 
0xFA, 0xFF, 0xFE, 0xFF, 0x02, 0x0C, 0x0E, 0x05, 0xFB, 0xFE, 0xED, 0xDF, 0xF3, 0x0A, 0x08, 0xFF, 
0xFF, 0xFF, 0xFD, 0x02, 0x06, 0x0B, 0xFB, 0x03, 0x05, 0x0B, 0x07, 0xFD, 0x02, 0x07, 0x06, 0xFF, 
0xF9, 0x08, 0x04, 0x06, 0x07, 0x07, 0x04, 0xF6, 0xEE, 0x07, 0x0A, 0x0A, 0x09, 0x05, 0x00, 0x00, 
0x02, 0xFC, 0xF7, 0x05, 0x02, 0x0A, 0x0E, 0xFE, 0xFF, 0xFE, 0x02, 0xFC, 0xFF, 0x03, 0xFC, 0xF3, 
0xF7, 0xFA, 0xF9, 0xF8, 0xF7, 0xF4, 0xF4, 0xF7, 0xF4, 0x2D, 0x06, 0x03, 0x01, 0x0E, 0x04, 0x02, 
0xFE, 0xFE, 0xFD, 0x02, 0x03, 0x00, 0xFF, 0xFB, 0xFB, 0xFD, 0x0A, 0x0B, 0x13, 0x00, 0x08, 0x01, 
0xFF, 0x06, 0x0A, 0x04, 0x04, 0x00, 0x07, 0x03, 0xFE, 0xF7, 0xF9, 0x0D, 0x0A, 0xF2, 0xEB, 0xF0, 
0xFB, 0xF8, 0xFA, 0xFF, 0x05, 0x00, 0xFF, 0x03, 0x04, 0x02, 0xFD, 0xFD, 0xFE, 0x03, 0x06, 0xF8, 
0xF4, 0xFA, 0xFA, 0xF9, 0xF7, 0xEF, 0xEF, 0xF5, 0xFA, 0xFD, 0x02, 0x01, 0x09, 0x01, 0x06, 0x04, 
0x08, 0x05, 0x00, 0x00, 0x02, 0x04, 0x0A, 0x0D, 0x09, 0x06, 0x03, 0x06, 0x00, 0x09, 0x08, 0xFE, 
0x00, 0xFA, 0xFB, 0x03, 0xFD, 0xFE, 0xFF, 0x04, 0x03, 0x09, 0x09, 0x01, 0xFE, 0xF8, 0xF2, 0xF9, 
0x01, 0x04, 0x04, 0x00, 0x09, 0x07, 0xFE, 0xFD, 0xFF, 0x00, 0xFD, 0xFC, 0xFE, 0xF7, 0xF9, 0xFC, 
0x15, 0x09, 0x07, 0x06, 0x09, 0x03, 0x03, 0x05, 0x08, 0x08, 0x02, 0x06, 0x02, 0x01, 0x08, 0x0A, 
0xF4, 0x00, 0x0C, 0x04, 0xF3, 0xFE, 0x04, 0x04, 0x03, 0xFF, 0x02, 0x07, 0x08, 0x07, 0x02, 0xFF, 
0x02, 0x01, 0x06, 0xFB, 0xF9, 0x10, 0xFD, 0xFC, 0x02, 0x01, 0x00, 0x02, 0x00, 0x04, 0xFD, 0xFF, 
0x01, 0x04, 0x02, 0xEF, 0xF0, 0xEC, 0xF9, 0xFB, 0xFD, 0x02, 0xFD, 0xFA, 0xFC, 0xFC, 0xF5, 0xFC, 
0xFC, 0xFE, 0x02, 0xFD, 0x01, 0x01, 0x15, 0x07, 0x01, 0x0C, 0x07, 0x02, 0x05, 0x04, 0x08, 0x06, 
0x06, 0x06, 0x03, 0x07, 0x04, 0xF4, 0xE9, 0x0A, 0x08, 0xFF, 0x01, 0x00, 0xFC, 0xF9, 0xF9, 0x03, 
0xFA, 0xF9, 0xFA, 0xFF, 0x03, 0x01, 0x07, 0xF7, 0x0C, 0x13, 0xFD, 0x01, 0x07, 0x08, 0x0A, 0x07, 
0x0A, 0x0E, 0x0E, 0x0E, 0x0E, 0x08, 0x0C, 0xFE, 0x01, 0xF5, 0xFF, 0xFC, 0x04, 0xFC, 0x01, 0xFF, 
0x05, 0xFC, 0x02, 0x06, 0x04, 0x03, 0x02, 0x06, 0x00, 0x00, 0x00, 0x00, 0x00, 0x00, 0x00, 0x00, 
0x00, 0x00, 0x00, 0x00, 0x00, 0x00, 0x00, 0x00, 0x00, 0x00, 0x00, 0x00, 0x00, 0x00, 0x00, 0x00, 
0x00, 0x00, 0x00, 0x00, 0x00, 0x00, 0x00, 0x00, 0x00, 0x00, 0x00, 0x00, 0x00, 0x00, 0x00, 0x00, 
0x00, 0x00, 0x00, 0x00, 0x00, 0x00, 0x00, 0x00, 0x00, 0x00, 0x00, 0x00, 0x00, 0x00, 0x00, 0x00, 
0x00, 0x00, 0x00, 0x00, 0x00, 0x00, 0x00, 0x00, 0x00, 0x00, 0x00, 0x00, 0x00, 0x00, 0x00, 0x00, 
0x00, 0x00, 0x00, 0x00, 0x00, 0x00, 0x00, 0x00, 0x00, 0x00, 0x00, 0x00, 0x00, 0x00, 0x00, 0x00, 
0x00, 0x00, 0x00, 0x00, 0x00, 0x00, 0x00, 0x00, 0x00, 0x00, 0x00, 0x00, 0x00, 0x00, 0x00, 0x00, 
0x00, 0x00, 0x00, 0x00, 0x00, 0x00, 0x00, 0x00, 0x00, 0x00, 0x00, 0x00, 0x00, 0x00, 0x00, 0x00, 
0x00, 0x00, 0x00, 0x00, 0x00, 0x00, 0x00, 0x00, 0x00, 0x00, 0x00, 0x00, 0x00, 0x00, 0x00, 0x00, 
0x00, 0x00, 0x00, 0x00, 0x00, 0x00, 0x00, 0x00, 0x00, 0x00, 0x00, 0x00, 0x00, 0x00, 0x00, 0x00, 
0x00, 0x00, 0x00, 0x00, 0x00, 0x00, 0x00, 0x00, 0x00, 0x00, 0x00, 0x00, 0x00, 0x00, 0x00, 0x00, 
0x00, 0x00, 0x00, 0x00, 0x00, 0x00, 0x00, 0x00, 0x00, 0x00, 0x00, 0x00, 0x00, 0x00, 0x00, 0x00, 
0x00, 0x00, 0x00, 0x00, 0x00, 0x00, 0x00, 0x00, 0x00, 0x00, 0x00, 0x00, 0x00, 0x00, 0x00, 0x00, 
0x00, 0x00, 0x00, 0x00, 0x00, 0x00, 0x00, 0x00, 0x00, 0x00, 0x00, 0x00, 0x00, 0x00, 0x00, 0x00, 
0x00, 0x00, 0x00, 0x00, 0x00, 0x00, 0x00, 0x00, 0x00, 0x00, 0x00, 0x00, 0x00, 0x00, 0x00, 0x00, 
0x00, 0x00, 0x00, 0x00, 0x00, 0x00, 0x00, 0x00, 0x00, 0x00, 0x00, 0x00, 0x00, 0x00, 0x00, 0x00, 
0x00, 0x00, 0x00, 0x00, 0x00, 0x00, 0x00, 0x00, 0x00, 0x00, 0x00, 0x00, 0x00, 0x00, 0x00, 0x00, 
0x00, 0x00, 0x00, 0x00, 0x00, 0x00, 0x00, 0x00, 0x03, 0x00, 0xFC, 0xFC, 0xF9, 0xF9, 0xF9, 0xFE, 
0xFB, 0x07, 0xF1, 0x0F, 0xF5, 0x05, 0xFC, 0x01, 0xF2, 0xFE, 0xFF, 0x01, 0x03, 0x02, 0x03, 0x03, 
0x03, 0x04, 0x09, 0xFF, 0x04, 0xF9, 0xF6, 0x0B, 0xF8, 0x00, 0xFC, 0xFD, 0x01, 0x04, 0x05, 0x08, 
0x06, 0x05, 0x07, 0x01, 0xF7, 0x07, 0xE4, 0x0D, 0xF2, 0x05, 0x0B, 0xFC, 0xFE, 0xFB, 0x01, 0x06, 
0x02, 0x01, 0x02, 0xFB, 0xFE, 0xEC, 0x07, 0xF6, 0x10, 0x02, 0x04, 0xFE, 0x01, 0x08, 0xF8, 0xF6, 
0xF4, 0xF8, 0xFA, 0xFD, 0xFC, 0x16, 0xF4, 0x02, 0xFC, 0xFE, 0x00, 0xFF, 0x05, 0x01, 0xFC, 0xFD, 
0xFE, 0x04, 0x05, 0x08, 0xF8, 0x04, 0x08, 0x0C, 0x23, 0x00, 0x0D, 0xFD, 0x00, 0xFF, 0x01, 0x00, 
0xFB, 0x04, 0x00, 0x03, 0x03, 0x06, 0x07, 0xFD, 0xFD, 0x0D, 0x03, 0x0A, 0xF7, 0x00, 0xF2, 0x05, 
0x02, 0x06, 0xFD, 0xFF, 0x05, 0x04, 0x07, 0x08, 0x01, 0xF9, 0xF0, 0xF7, 0xFA, 0xFD, 0x04, 0xFB, 
0xFF, 0x02, 0x03, 0x04, 0x01, 0x07, 0x01, 0xF6, 0x12, 0xE4, 0x16, 0x01, 0xFA, 0xFE, 0xFD, 0x04, 
0x01, 0x00, 0xFB, 0xFB, 0xF5, 0xF4, 0xF7, 0xFE, 0xFA, 0x00, 0x16, 0xED, 0x01, 0xF5, 0x02, 0xFC, 
0xFF, 0x01, 0xFD, 0xFF, 0x01, 0xFC, 0xFB, 0x02, 0x04, 0x06, 0x09, 0x0D, 0x08, 0x05, 0xFE, 0xF9, 
0xFF, 0xFF, 0x02, 0x02, 0x02, 0x00, 0x00, 0xFE, 0xFF, 0x01, 0x01, 0x06, 0xFE, 0xEE, 0xED, 0xFF, 
0xFB, 0x14, 0x0B, 0x04, 0xF8, 0xFF, 0xF8, 0xFE, 0xFF, 0x04, 0x00, 0xFC, 0xF8, 0xFB, 0x00, 0xF5, 
0x01, 0x01, 0xFD, 0xFF, 0x05, 0xFE, 0x07, 0x03, 0xFF, 0xFE, 0xFC, 0xFB, 0xFC, 0x01, 0x0D, 0x10, 
0xFD, 0x00, 0xF0, 0xF4, 0xFF, 0x00, 0xFF, 0x04, 0x06, 0x01, 0xFD, 0xFD, 0xFE, 0x03, 0xF8, 0xE7, 
0xED, 0xF5, 0xFD, 0x01, 0x0A, 0x00, 0xF9, 0xFD, 0xFD, 0xFC, 0xFE, 0xFF, 0x00, 0x02, 0xFD, 0xFF, 
0xFC, 0x0E, 0xFB, 0x06, 0xFA, 0x01, 0x03, 0x00, 0x02, 0x05, 0x00, 0xFB, 0xFB, 0xFE, 0x01, 0xFF, 
0xFD, 0x00, 0xFE, 0x00, 0xFB, 0x00, 0xFC, 0xFD, 0xFC, 0xFD, 0xEE, 0x01, 0x0B, 0x09, 0x02, 0x07, 
0x07, 0x05, 0x05, 0x06, 0x08, 0x03, 0x04, 0x00, 0x04, 0xFF, 0x0B, 0x18, 0x09, 0x08, 0x0A, 0x05, 
0x07, 0x05, 0x00, 0x04, 0x04, 0x05, 0x05, 0x04, 0x01, 0x05, 0xFE, 0x08, 0xFC, 0xFF, 0xFE, 0x02, 
0xFE, 0x01, 0x03, 0xFF, 0xFE, 0xFE, 0x00, 0x02, 0x03, 0x05, 0x05, 0x02, 0x0A, 0x0A, 0x07, 0x03, 
0x04, 0x04, 0x04, 0x01, 0xFF, 0xFD, 0xFB, 0xFB, 0xFF, 0xFD, 0xFC, 0xFF, 0xF9, 0x06, 0x06, 0x05, 
0x03, 0xFB, 0xFE, 0x03, 0x04, 0x02, 0x01, 0x02, 0xFE, 0x01, 0x01, 0x01, 0x05, 0x00, 0x29, 0x24, 
0x28, 0x1D, 0x14, 0x10, 0x09, 0x04, 0x04, 0x02, 0x04, 0x00, 0x01, 0x04, 0xFE, 0xFF, 0x00, 0xDF, 
0xE6, 0xE7, 0xF0, 0xEE, 0xEE, 0xF5, 0xFC, 0xFE, 0x00, 0x03, 0x02, 0x01, 0x04, 0x05, 0x04, 0x06, 
0x04, 0x08, 0x08, 0x0D, 0x11, 0x0B, 0x08, 0x08, 0x05, 0x05, 0x03, 0x04, 0x04, 0x03, 0x05, 0x06, 
0xFD, 0xFB, 0x07, 0x05, 0x04, 0x04, 0x02, 0x01, 0xFE, 0xFD, 0xFC, 0x00, 0x00, 0x00, 0x02, 0x00, 
0x00, 0x03, 0x0B, 0x01, 0x02, 0x00, 0xFE, 0xFB, 0xFD, 0x00, 0xFB, 0xFB, 0xFE, 0x00, 0x00, 0x01, 
0x00, 0x01, 0x00, 0x06, 0x08, 0x07, 0x05, 0x03, 0x04, 0x02, 0x02, 0x03, 0x00, 0x00, 0xFF, 0xFE, 
0xFE, 0x00, 0xFE, 0xF7, 0x08, 0x02, 0x09, 0x05, 0x04, 0x04, 0x05, 0x04, 0x01, 0x02, 0x00, 0x04, 
0xFF, 0xFF, 0x00, 0xFF, 0xFF, 0xF9, 0xF9, 0xF8, 0xFA, 0xF8, 0xFD, 0xFD, 0xFA, 0xFD, 0xFE, 0x02, 
0xFF, 0x00, 0xFD, 0x03, 0x04, 0x02, 0x0B, 0xFE, 0xFF, 0xFD, 0xFE, 0x05, 0x01, 0x01, 0xFF, 0x01, 
0x01, 0x00, 0x03, 0x02, 0x04, 0x03, 0x02, 0xE7, 0xE0, 0xEC, 0xF5, 0xFA, 0xF8, 0xF9, 0xF8, 0xFC, 
0xFE, 0xFD, 0x00, 0xFE, 0xFA, 0xFF, 0xFD, 0xFE, 0xFC, 0xFE, 0x07, 0x08, 0x09, 0x05, 0x00, 0x02, 
0x04, 0x05, 0x05, 0x04, 0xF9, 0xF5, 0xF8, 0xF6, 0xFD, 0x04, 0x03, 0xF7, 0x01, 0xFD, 0x00, 0x01, 
0xFD, 0xFD, 0xF9, 0xF9, 0xFC, 0x03, 0x03, 0x01, 0x02, 0x0B, 0x00, 0x05, 0xFE, 0xF6, 0x04, 0x02, 
0xFE, 0xFE, 0xFD, 0xFE, 0x03, 0x05, 0x0B, 0x0A, 0x10, 0x13, 0x10, 0x03, 0x09, 0x07, 0xF5, 0xFE, 
0x03, 0xFF, 0x05, 0x04, 0xFE, 0xFD, 0x03, 0x02, 0x05, 0x00, 0x01, 0x01, 0xFC, 0xF7, 0xFD, 0xFB, 
0xF7, 0xFF, 0x07, 0x04, 0x00, 0x00, 0xF8, 0x00, 0x01, 0xFD, 0xF6, 0xFA, 0xFC, 0xFC, 0xFD, 0x00, 
0x02, 0xFF, 0xFD, 0xFF, 0x00, 0x03, 0x05, 0x02, 0xF2, 0xF0, 0xEF, 0xE4, 0xF1, 0xE7, 0x00, 0x01, 
0x03, 0x02, 0x02, 0x03, 0xFF, 0xFE, 0xFF, 0x02, 0x04, 0x0A, 0x03, 0xF8, 0xF4, 0xFB, 0x02, 0xFB, 
0x00, 0x09, 0x0B, 0x03, 0x05, 0x05, 0x03, 0x01, 0x02, 0x01, 0x05, 0x00, 0x04, 0x06, 0x0A, 0xFB, 
0xFB, 0xF4, 0xF6, 0xFE, 0xF8, 0x02, 0x0C, 0x09, 0x04, 0x06, 0x02, 0xFF, 0x06, 0x13, 0x01, 0x0D, 
0xFC, 0xFB, 0xFD, 0x01, 0xFF, 0xF9, 0xFE, 0x01, 0xFA, 0xF7, 0xFD, 0x02, 0x02, 0xF9, 0xF3, 0xF4, 
0x03, 0xF2, 0x04, 0x02, 0x00, 0x0B, 0x04, 0xFD, 0xF9, 0xFC, 0xF4, 0xF2, 0xF4, 0xFA, 0xF8, 0xFA, 
0xFD, 0x00, 0xF6, 0x04, 0xFD, 0x00, 0x04, 0xFF, 0x03, 0x09, 0x00, 0xFA, 0xFF, 0x05, 0x03, 0x04, 
0x07, 0x06, 0xFD, 0xF7, 0xFE, 0x02, 0x04, 0x04, 0xF8, 0xF7, 0xFA, 0xF9, 0xFC, 0x00, 0x00, 0x00, 
0x04, 0xFE, 0xF8, 0x02, 0x02, 0x00, 0xF9, 0xFB, 0x0F, 0x05, 0xFE, 0x04, 0x03, 0x03, 0x0B, 0x08, 
0x02, 0x05, 0x05, 0x05, 0x05, 0xFA, 0x03, 0xFE, 0x07, 0x07, 0x01, 0x06, 0x07, 0x04, 0x01, 0x09, 
0x05, 0x09, 0x05, 0x05, 0xFD, 0xF2, 0xFF, 0x03, 0x00, 0x02, 0xF6, 0x07, 0x08, 0xFD, 0xFB, 0xFE, 
0xFC, 0x02, 0x05, 0x09, 0x01, 0x08, 0x0D, 0x04, 0x03, 0x03, 0x02, 0x04, 0x03, 0x02, 0xFD, 0xFC, 
0xFE, 0xFD, 0x04, 0x06, 0x08, 0x05, 0x02, 0x00, 0xFB, 0x0F, 0x17, 0x19, 0x15, 0x12, 0x11, 0x12, 
0x11, 0x13, 0x16, 0x19, 0x16, 0x1E, 0x1C, 0x1E, 0x24, 0x33, 0xFF, 0x02, 0x01, 0xFF, 0x02, 0x00, 
0xFF, 0xFC, 0xF9, 0xFC, 0x00, 0x05, 0x03, 0x03, 0x00, 0x06, 0x04, 0x03, 0x02, 0x09, 0x03, 0x00, 
0x06, 0x06, 0x05, 0x01, 0x02, 0x00, 0x03, 0x03, 0x05, 0xFD, 0x01, 0x01, 0xFF, 0xFB, 0x01, 0xFF, 
0x00, 0x01, 0x01, 0x04, 0x05, 0x04, 0x01, 0x03, 0x03, 0x07, 0x06, 0x06, 0x02, 0xFE, 0xFC, 0xFA, 
0xFD, 0xFF, 0xFF, 0xFC, 0x00, 0xFF, 0xFD, 0xFA, 0xF7, 0xF9, 0xF7, 0xF5, 0xFB, 0xFB, 0x00, 0xFE, 
0xFB, 0xFE, 0xFD, 0xFE, 0xFF, 0x04, 0x03, 0x03, 0xFF, 0x00, 0x01, 0x03, 0x01, 0xFF, 0x03, 0x02, 
0xF8, 0x02, 0xFF, 0x01, 0xFE, 0x00, 0x02, 0x06, 0x07, 0x05, 0x05, 0x05, 0x03, 0x03, 0x00, 0xFF, 
0xFD, 0xFE, 0xFF, 0xFF, 0x00, 0x00, 0x02, 0xFF, 0xFF, 0x01, 0xFA, 0xF8, 0xF8, 0xFA, 0xF1, 0xFC, 
0xF8, 0x0A, 0x04, 0x04, 0x00, 0x00, 0xFF, 0xFD, 0xFD, 0x00, 0xFE, 0xFE, 0xFC, 0xFC, 0xFF, 0x00, 
0x01, 0x00, 0xFF, 0xFD, 0xFF, 0xFF, 0x01, 0x00, 0x01, 0x01, 0x02, 0x02, 0x00, 0xFC, 0xFF, 0xFE, 
0x00, 0xFB, 0xF7, 0xFC, 0x00, 0x01, 0x05, 0x00, 0x02, 0x03, 0x01, 0x03, 0x00, 0x01, 0x03, 0x08, 
0x08, 0x0B, 0x00, 0x03, 0x04, 0x07, 0x08, 0x07, 0x01, 0x00, 0x04, 0x03, 0x00, 0xFF, 0x01, 0xFF, 
0xFD, 0x00, 0x00, 0x01, 0xFD, 0xFE, 0xFC, 0xFA, 0x01, 0x00, 0xFF, 0x00, 0x03, 0xFF, 0xFB, 0xFB, 
0xFD, 0xFD, 0x03, 0x06, 0x04, 0x05, 0xFE, 0x07, 0x0C, 0x05, 0xFE, 0xFB, 0x00, 0x02, 0x04, 0x06, 
0x03, 0x03, 0x06, 0x09, 0x04, 0x07, 0x02, 0xFF, 0x07, 0x00, 0x00, 0x01, 0xFF, 0xFD, 0xFE, 0xFD, 
0xFD, 0xFB, 0xFA, 0xFB, 0xF7, 0x00, 0xF9, 0xFC, 0x00, 0x00, 0x00, 0x00, 0x00, 0x00, 0x00, 0x00, 
0x00, 0x00, 0x00, 0x00, 0x00, 0x00, 0x00, 0x00, 0x00, 0x00, 0x00, 0x00, 0x00, 0x00, 0x00, 0x00, 
0x00, 0x00, 0x00, 0x00, 0x00, 0x00, 0x00, 0x00, 0x00, 0x00, 0x00, 0x00, 0x00, 0x00, 0x00, 0x00, 
0x00, 0x00, 0x00, 0x00, 0x00, 0x00, 0x00, 0x00, 0x00, 0x00, 0x00, 0x00, 0x00, 0x00, 0x00, 0x00, 
0x00, 0x00, 0x00, 0x00, 0x00, 0x00, 0x00, 0x00, 0x00, 0x00, 0x00, 0x00, 0x00, 0x00, 0x00, 0x00, 
0x00, 0x00, 0x00, 0x00, 0x00, 0x00, 0x00, 0x00, 0x00, 0x00, 0x00, 0x00, 0x00, 0x00, 0x00, 0x00, 
0x00, 0x00, 0x00, 0x00, 0x00, 0x00, 0x00, 0x00, 0x00, 0x00, 0x00, 0x00, 0x00, 0x00, 0x00, 0x00, 
0x00, 0x00, 0x00, 0x00, 0x00, 0x00, 0x00, 0x00, 0x00, 0x00, 0x00, 0x00, 0x00, 0x00, 0x00, 0x00, 
0x00, 0x00, 0x00, 0x00, 0x00, 0x00, 0x00, 0x00, 0x00, 0x00, 0x00, 0x00, 0x00, 0x00, 0x00, 0x00, 
0x00, 0x00, 0x00, 0x00, 0x00, 0x00, 0x00, 0x00, 0x00, 0x00, 0x00, 0x00, 0x00, 0x00, 0x00, 0x00, 
0x00, 0x00, 0x00, 0x00, 0x00, 0x00, 0x00, 0x00, 0x00, 0x00, 0x00, 0x00, 0x00, 0x00, 0x00, 0x00, 
0x00, 0x00, 0x00, 0x00, 0x00, 0x00, 0x00, 0x00, 0x00, 0x00, 0x00, 0x00, 0x00, 0x00, 0x00, 0x00, 
0x00, 0x00, 0x00, 0x00, 0x00, 0x00, 0x00, 0x00, 0x00, 0x00, 0x00, 0x00, 0x00, 0x00, 0x00, 0x00, 
0x00, 0x00, 0x00, 0x00, 0x00, 0x00, 0x00, 0x00, 0x00, 0x00, 0x00, 0x00, 0x00, 0x00, 0x00, 0x00, 
0x00, 0x00, 0x00, 0x00, 0x00, 0x00, 0x00, 0x00, 0x00, 0x00, 0x00, 0x00, 0x00, 0x00, 0x00, 0x00, 
0x00, 0x00, 0x00, 0x00, 0x00, 0x00, 0x00, 0x00, 0x00, 0x00, 0x00, 0x00, 0x00, 0x00, 0x00, 0x00, 
0x00, 0x00, 0x00, 0x00, 0x00, 0x00, 0x00, 0x00, 0x00, 0x00, 0x00, 0x00, 0x00, 0x00, 0x00, 0x00, 
0x00, 0x00, 0x00, 0x00, 0x00, 0x00, 0x00, 0x00, 0xF2, 0xF2, 0xF7, 0xF3, 0xF6, 0x01, 0x04, 0x02, 
0x03, 0x04, 0x04, 0x02, 0x00, 0xFC, 0xFB, 0xF7, 0xF3, 0x0C, 0x03, 0x04, 0xFA, 0xFA, 0x00, 0xFE, 
0x01, 0x01, 0xFE, 0xFF, 0xFC, 0xFF, 0x00, 0x01, 0x08, 0x04, 0x02, 0xFC, 0x0B, 0x00, 0xFD, 0x03, 
0x02, 0x01, 0x08, 0x05, 0x03, 0x04, 0x01, 0x01, 0x00, 0x02, 0xFB, 0xF9, 0x07, 0x16, 0x18, 0x09, 
0x05, 0x05, 0x04, 0x04, 0x03, 0x00, 0x01, 0x02, 0xFD, 0xFD, 0xFD, 0xF8, 0xF4, 0xF9, 0x04, 0x0B, 
0x07, 0x03, 0x04, 0x03, 0xFE, 0xFB, 0xFE, 0xFF, 0x00, 0xFF, 0xFC, 0xFB, 0xF4, 0x05, 0x0F, 0x04, 
0xFF, 0x01, 0x00, 0xFC, 0xFC, 0xFD, 0xFD, 0xFE, 0xFE, 0x00, 0xFF, 0xFF, 0x01, 0x04, 0xFB, 0xFE, 
0x12, 0x0D, 0x0F, 0x0F, 0x0F, 0x0C, 0x09, 0x08, 0x03, 0xFD, 0x04, 0xF9, 0xFD, 0x02, 0x0A, 0x0E, 
0x17, 0x11, 0x06, 0x04, 0x07, 0x06, 0x07, 0x06, 0x06, 0x06, 0x01, 0x01, 0x03, 0x00, 0x01, 0xFA, 
0x02, 0xF9, 0xF9, 0x04, 0x08, 0x0A, 0x07, 0x06, 0x09, 0x06, 0x05, 0x03, 0x07, 0x00, 0x05, 0x06, 
0x06, 0x03, 0x02, 0x07, 0xF7, 0xFB, 0x01, 0xFE, 0xFA, 0xFC, 0x00, 0xFD, 0xFD, 0xFE, 0x00, 0x03, 
0x06, 0x09, 0xED, 0xE9, 0xEE, 0xEB, 0xF3, 0xF0, 0xF3, 0xF6, 0xF9, 0xFB, 0xFD, 0xFD, 0x00, 0x03, 
0x00, 0x01, 0x03, 0xF1, 0xEF, 0xF6, 0xF6, 0xF8, 0xEF, 0xF3, 0xF8, 0xF7, 0xFC, 0xF8, 0x00, 0x02, 
0xFC, 0x00, 0xFF, 0xF8, 0xFB, 0xF4, 0xF0, 0xFC, 0xF8, 0xFA, 0xFD, 0xFD, 0xFE, 0xF9, 0xFB, 0x01, 
0xFF, 0xFC, 0xFF, 0x00, 0xFF, 0xDE, 0xEC, 0xEF, 0xF6, 0xFC, 0xFE, 0x00, 0xFE, 0xFF, 0xFF, 0x01, 
0x03, 0xFD, 0x00, 0xFE, 0x05, 0x05, 0x07, 0x07, 0xFE, 0x0C, 0x0B, 0x09, 0x07, 0x01, 0xFE, 0xFE, 
0x00, 0x02, 0x00, 0x00, 0x00, 0x00, 0xFF, 0x04, 0x06, 0x03, 0x02, 0x02, 0x04, 0x05, 0x06, 0x03, 
0xFF, 0x02, 0x05, 0x04, 0x04, 0x00, 0x09, 0x0C, 0x01, 0xFC, 0xFA, 0xFE, 0xFA, 0xFD, 0x12, 0x21, 
0x19, 0x07, 0x09, 0x07, 0x0C, 0x05, 0xFE, 0xFE, 0xF7, 0xFB, 0xFC, 0x02, 0xFE, 0x00, 0x02, 0x01, 
0x07, 0x01, 0x01, 0xFF, 0x04, 0xFB, 0xFD, 0x01, 0x01, 0xF9, 0x00, 0x04, 0x06, 0x06, 0xFE, 0xFD, 
0xFF, 0x02, 0xFB, 0x06, 0x08, 0x13, 0x0D, 0x0D, 0x0C, 0x02, 0x08, 0x04, 0xFF, 0xF8, 0xFB, 0xFB, 
0xFB, 0xFF, 0xFB, 0xF2, 0xF3, 0xFD, 0x04, 0x03, 0x01, 0x05, 0x03, 0xFE, 0x05, 0x07, 0x07, 0x03, 
0x01, 0xFF, 0x05, 0x04, 0xFE, 0xFD, 0xFB, 0xFD, 0x02, 0xFE, 0x03, 0xFC, 0x05, 0x03, 0x04, 0x00, 
0x06, 0x05, 0x05, 0x03, 0x04, 0x01, 0xF0, 0xE9, 0xEC, 0xE6, 0xF0, 0xF4, 0x00, 0xFC, 0x00, 0xFE, 
0x04, 0x00, 0xFE, 0xFE, 0xFC, 0xFE, 0x03, 0x02, 0x01, 0xFD, 0xFD, 0x04, 0x07, 0xFD, 0x03, 0x06, 
0x00, 0xFE, 0x01, 0x08, 0x09, 0x0F, 0x0A, 0xFE, 0xFA, 0xFD, 0xFB, 0x01, 0x01, 0x07, 0x00, 0x08, 
0xFB, 0x03, 0xFD, 0xFF, 0x02, 0xFA, 0xF8, 0x07, 0x07, 0xFF, 0x08, 0x10, 0x00, 0xFE, 0xFD, 0xF8, 
0xEF, 0x00, 0x06, 0x03, 0x07, 0xFC, 0xF5, 0xFE, 0x04, 0x05, 0xFD, 0x12, 0x15, 0x16, 0x10, 0x0A, 
0x08, 0x06, 0xFC, 0xFD, 0x00, 0x05, 0xFD, 0xFB, 0x08, 0x05, 0x02, 0x03, 0x03, 0x00, 0xF7, 0xF1, 
0xFF, 0x03, 0x00, 0x0C, 0x03, 0x05, 0xFB, 0xFC, 0xFD, 0x05, 0x01, 0xFB, 0xF4, 0xFF, 0x03, 0xFF, 
0xFF, 0xFB, 0xF3, 0xF8, 0x06, 0xFF, 0xFB, 0x03, 0xFF, 0xF6, 0xFA, 0xFC, 0xFC, 0xFC, 0xFA, 0x03, 
0x05, 0x0E, 0x04, 0x05, 0x03, 0x06, 0x03, 0x07, 0xFD, 0x02, 0x01, 0xFC, 0x07, 0x0D, 0x02, 0xF9, 
0xF0, 0xF5, 0xF8, 0xF5, 0x01, 0xF6, 0x08, 0x02, 0x02, 0x04, 0x05, 0x00, 0xFE, 0xFB, 0xF7, 0x01, 
0xFA, 0x03, 0x07, 0x09, 0x07, 0x02, 0x04, 0x07, 0x04, 0x00, 0xFE, 0xF6, 0xEB, 0xEC, 0xED, 0x01, 
0x08, 0x0E, 0xFD, 0x09, 0x00, 0x00, 0x0E, 0x10, 0x00, 0x00, 0x00, 0x00, 0x00, 0x00, 0x00, 0x00, 
0x00, 0x00, 0x00, 0x00, 0x00, 0x00, 0x00, 0x00, 0x00, 0x00, 0x00, 0x00, 0x00, 0x00, 0x00, 0x00, 
0x00, 0x00, 0x00, 0x00, 0x00, 0x00, 0x00, 0x00, 0x00, 0x00, 0x00, 0x00, 0x00, 0x00, 0x00, 0x00, 
0x00, 0x00, 0x00, 0x00, 0x00, 0x00, 0x00, 0x00, 0x00, 0x00, 0x00, 0x00, 0x00, 0x00, 0x00, 0x00, 
0x00, 0x00, 0x00, 0x00, 0x00, 0x00, 0x00, 0x00, 0x00, 0x00, 0x00, 0x00, 0x00, 0x00, 0x00, 0x00, 
0x00, 0x00, 0x00, 0x00, 0x00, 0x00, 0x00, 0x00, 0x00, 0x00, 0x00, 0x00, 0x00, 0x00, 0x00, 0x00, 
0x00, 0x00, 0x00, 0x00, 0x00, 0x00, 0x00, 0x00, 0x00, 0x00, 0x00, 0x00, 0x00, 0x00, 0x00, 0x00, 
0x00, 0x00, 0x00, 0x00, 0x00, 0x00, 0x00, 0x00, 0x00, 0x00, 0x00, 0x00, 0x00, 0x00, 0x00, 0x00, 
0x00, 0x00, 0x00, 0x00, 0x00, 0x00, 0x00, 0x00, 0x00, 0x00, 0x00, 0x00, 0x00, 0x00, 0x00, 0x00, 
0x00, 0x00, 0x00, 0x00, 0x00, 0x00, 0x00, 0x00, 0x00, 0x00, 0x00, 0x00, 0x00, 0x00, 0x00, 0x00, 
0x00, 0x00, 0x00, 0x00, 0x00, 0x00, 0x00, 0x00, 0x00, 0x00, 0x00, 0x00, 0x00, 0x00, 0x00, 0x00, 
0x00, 0x00, 0x00, 0x00, 0x00, 0x00, 0x00, 0x00, 0x00, 0x00, 0x00, 0x00, 0x00, 0x00, 0x00, 0x00, 
0x00, 0x00, 0x00, 0x00, 0x00, 0x00, 0x00, 0x00, 0x00, 0x00, 0x00, 0x00, 0x00, 0x00, 0x00, 0x00, 
0x00, 0x00, 0x00, 0x00, 0x00, 0x00, 0x00, 0x00, 0x00, 0x00, 0x00, 0x00, 0x00, 0x00, 0x00, 0x00, 
0x00, 0x00, 0x00, 0x00, 0x00, 0x00, 0x00, 0x00, 0x00, 0x00, 0x00, 0x00, 0x00, 0x00, 0x00, 0x00, 
0x00, 0x00, 0x00, 0x00, 0x00, 0x00, 0x00, 0x00, 0x00, 0x00, 0x00, 0x00, 0x00, 0x00, 0x00, 0x00, 
0x00, 0x00, 0x00, 0x00, 0x00, 0x00, 0x00, 0x00, 0x00, 0x00, 0x00, 0x00, 0x00, 0x00, 0x00, 0x00, 
0x00, 0x00, 0x00, 0x00, 0x00, 0x00, 0x00, 0x00, 0x03, 0xFD, 0xFD, 0xFD, 0xFD, 0xFD, 0x07, 0x0C, 
0x0C, 0x05, 0x02, 0xFC, 0xF6, 0xF6, 0xF7, 0xFD, 0xFA, 0xFF, 0x04, 0x02, 0x03, 0x07, 0x04, 0x03, 
0x00, 0xFD, 0xFA, 0xF7, 0xFD, 0x01, 0x01, 0x02, 0xFE, 0x0A, 0x06, 0x01, 0xFF, 0x02, 0xFE, 0x05, 
0x05, 0x04, 0xFC, 0xF9, 0xFC, 0xF9, 0xFD, 0xFC, 0xFC, 0xFC, 0x09, 0xFC, 0xFF, 0xFA, 0x00, 0xFB, 
0xF6, 0xFE, 0x0E, 0x1D, 0x26, 0x23, 0x1C, 0x0A, 0xFC, 0xF4, 0xF9, 0xF1, 0xFF, 0x01, 0xF9, 0xFC, 
0xFC, 0xF8, 0xF6, 0xF5, 0xF5, 0x02, 0x02, 0x07, 0x02, 0x0C, 0x08, 0x08, 0x08, 0x05, 0x01, 0x02, 
0xFE, 0xFD, 0xFC, 0xFC, 0xFE, 0xFD, 0xFB, 0xF9, 0xFD, 0xFE, 0x00, 0xFF, 0x01, 0x01, 0x09, 0x04, 
0xFD, 0xFD, 0x00, 0x03, 0x03, 0x07, 0x07, 0x03, 0x00, 0xFD, 0xF5, 0xF7, 0xF7, 0x03, 0x07, 0xFF, 
0x05, 0x00, 0x03, 0x03, 0x01, 0x01, 0xFF, 0xFC, 0xFC, 0xFD, 0x06, 0x04, 0x05, 0x01, 0xFE, 0xFE, 
0xFE, 0x00, 0xFF, 0xFC, 0x01, 0x00, 0x03, 0xFB, 0xFE, 0xFC, 0x0C, 0x09, 0x0B, 0x07, 0x01, 0x01, 
0xF9, 0x03, 0x00, 0x01, 0x04, 0xFF, 0x03, 0x0A, 0x0C, 0x0E, 0x05, 0x02, 0x00, 0xFE, 0x02, 0x08, 
0x05, 0x0B, 0x09, 0x0D, 0x0F, 0x0A, 0x08, 0x05, 0x02, 0x02, 0x03, 0xFA, 0xFB, 0x04, 0xFB, 0x00, 
0x06, 0x05, 0x00, 0x02, 0xFF, 0xFE, 0x02, 0x01, 0xFD, 0xFD, 0x02, 0x00, 0x07, 0x0B, 0x04, 0x00, 
0x01, 0xFF, 0xF8, 0xFB, 0xFF, 0x00, 0x05, 0x05, 0x05, 0x03, 0x04, 0x04, 0x01, 0x04, 0x0A, 0x0C, 
0x0A, 0x07, 0x07, 0x06, 0x05, 0x02, 0xFF, 0x03, 0x03, 0x09, 0x09, 0x07, 0xFE, 0xEB, 0xE4, 0xE7, 
0xEB, 0xFE, 0x0A, 0x0D, 0x0B, 0x1A, 0xFD, 0x05, 0x08, 0x02, 0x01, 0xFD, 0xFF, 0x08, 0x0A, 0x03, 
0x02, 0x03, 0xFF, 0x03, 0x02, 0x05, 0xFD, 0x03, 0x00, 0x06, 0x05, 0xFE, 0x00, 0x08, 0x04, 0xFF, 
0x00, 0x00, 0x01, 0x04, 0x03, 0x06, 0x01, 0x02, 0x02, 0xFF, 0xFD, 0x03, 0x07, 0x05, 0x03, 0x04, 
0x08, 0x00, 0xFD, 0xFE, 0x03, 0xFE, 0x00, 0xFF, 0xFA, 0xF6, 0xFB, 0x17, 0x0F, 0x0C, 0x0A, 0x09, 
0x08, 0x07, 0x07, 0x07, 0x02, 0x04, 0x00, 0x08, 0x0A, 0x04, 0x00, 0xF6, 0xF9, 0x05, 0x01, 0x02, 
0x01, 0x02, 0x02, 0x04, 0x04, 0x06, 0x04, 0x05, 0x03, 0x04, 0x02, 0x1D, 0xF0, 0xE9, 0xFF, 0x04, 
0x02, 0x02, 0xFE, 0xFD, 0x00, 0xFE, 0xFD, 0xFD, 0xFC, 0xFE, 0xFE, 0xFF, 0x09, 0x03, 0xF6, 0xF6, 
0xF0, 0xF3, 0xF6, 0xF8, 0xF8, 0xF8, 0xFC, 0xFF, 0xFF, 0xFE, 0xFE, 0xFF, 0xFC, 0x0A, 0x0A, 0x08, 
0xFD, 0xFB, 0xFC, 0xFF, 0x04, 0x01, 0x00, 0xFF, 0xFE, 0xFE, 0x00, 0xFF, 0x00, 0xF9, 0x08, 0x07, 
0x01, 0x04, 0x05, 0x02, 0xFE, 0x01, 0xFF, 0x04, 0xFE, 0x01, 0x03, 0x00, 0x01, 0x01, 0xFE, 0x07, 
0x08, 0x0E, 0x08, 0x04, 0xFE, 0xFD, 0x00, 0x00, 0x02, 0xFC, 0xFC, 0x01, 0x01, 0x02, 0x09, 0x0B, 
0xF5, 0x05, 0x07, 0x0F, 0x0E, 0x07, 0x09, 0x0A, 0x06, 0x03, 0x07, 0x06, 0xFF, 0x05, 0x00, 0x02, 
0x04, 0xF9, 0xE2, 0xF8, 0x02, 0x01, 0xFC, 0xFB, 0xFE, 0xFB, 0xFA, 0xF7, 0xF5, 0xF9, 0xF8, 0xFA, 
0xFE, 0xF5, 0xF9, 0x16, 0x04, 0xF5, 0xFB, 0xFB, 0xF8, 0xF9, 0xFD, 0x01, 0x05, 0x00, 0x03, 0x01, 
0x01, 0x01, 0x03, 0x0A, 0x0E, 0xF6, 0xF9, 0xF9, 0xF8, 0xF9, 0xF7, 0xFD, 0x01, 0xFD, 0x00, 0x04, 
0x00, 0xFC, 0xFF, 0xFA, 0x05, 0xFA, 0xF3, 0xFD, 0x05, 0x06, 0x02, 0x04, 0x05, 0x02, 0xFD, 0xFF, 
0x01, 0x00, 0xFE, 0x01, 0xFC, 0xF7, 0x10, 0x0C, 0xFA, 0xFE, 0x01, 0x0B, 0x09, 0x05, 0x03, 0x01, 
0x05, 0x05, 0xFF, 0x00, 0xFF, 0xFF, 0x09, 0x22, 0x07, 0xF9, 0xFE, 0x05, 0x07, 0x05, 0x08, 0x05, 
0x07, 0x06, 0x02, 0x02, 0x01, 0xFE, 0x00, 0x07, 0xF5, 0xF0, 0x01, 0x06, 0x04, 0x09, 0x07, 0x01, 
0xFF, 0x03, 0xFF, 0x02, 0xFC, 0xFF, 0x01, 0xF4, 0x07, 0x01, 0x00, 0x05, 0x08, 0x07, 0x04, 0x03, 
0x04, 0x04, 0xFF, 0xFE, 0x03, 0x05, 0x03, 0x09, 0x02, 0x0B, 0xF3, 0xFA, 0xFC, 0xFC, 0xFC, 0xFF, 
0x00, 0x02, 0x04, 0x04, 0x03, 0x05, 0x04, 0xFD, 0xFC, 0x04, 0x0D, 0x1B, 0x13, 0x06, 0xFB, 0xFC, 
0xFD, 0xFD, 0xFE, 0x02, 0xFE, 0x00, 0x09, 0x04, 0x05, 0x01, 0x09, 0x29, 0x19, 0x0B, 0x05, 0x05, 
0x05, 0x04, 0x04, 0x03, 0x03, 0x08, 0x02, 0x01, 0xFE, 0xFB, 0x00, 0x01, 0x04, 0x03, 0x02, 0x06, 
0x06, 0x01, 0xFF, 0xFC, 0xF9, 0xFA, 0xFD, 0xFC, 0x04, 0x04, 0x09, 0x08, 0x0B, 0x00, 0x02, 0x03, 
0x00, 0xFF, 0xFD, 0xFF, 0xFE, 0x03, 0x04, 0xFD, 0xF9, 0xFA, 0xFE, 0xFA, 0xF7, 0xF7, 0x0D, 0x02, 
0xFC, 0xFF, 0x00, 0x00, 0x01, 0x00, 0x03, 0x08, 0x05, 0x03, 0x02, 0x03, 0xFE, 0x03, 0x02, 0xED, 
0xE5, 0xE5, 0xEF, 0xF4, 0xF7, 0x00, 0x04, 0x05, 0x02, 0x00, 0x02, 0x00, 0xFE, 0xFB, 0xFD, 0xFF, 
0x06, 0x05, 0x05, 0x00, 0x07, 0x06, 0x03, 0x05, 0x06, 0x08, 0x00, 0xFC, 0x02, 0x02, 0xFD, 0x01, 
0xF9, 0x08, 0xFC, 0xF2, 0xF5, 0xF9, 0xF9, 0xFB, 0xFB, 0xFB, 0xF6, 0xF2, 0xF3, 0xF4, 0xFC, 0xF8, 
0xFD, 0xF4, 0xF8, 0x07, 0xF1, 0xFD, 0xF6, 0xFB, 0xF8, 0xFA, 0xFB, 0x00, 0x01, 0xFF, 0xFE, 0x02, 
0x01, 0x02, 0xFA, 0x0B, 0x12, 0x03, 0x03, 0x05, 0x01, 0x00, 0x02, 0x04, 0x03, 0x05, 0x03, 0x03, 
0x03, 0x02, 0x01, 0x00, 0x02, 0x04, 0x0D, 0x09, 0x0A, 0x03, 0xFA, 0xFE, 0x04, 0x01, 0xFE, 0xFC, 
0xFA, 0xFE, 0x02, 0xFE, 0xFE, 0xF3, 0xF3, 0xFD, 0xFA, 0xFF, 0xFD, 0xFE, 0x03, 0x04, 0x01, 0xFC, 
0x00, 0x01, 0x04, 0x06, 0x08, 0x0F, 0x03, 0x06, 0x10, 0x05, 0x11, 0x0E, 0x02, 0x00, 0xFE, 0xFC, 
0xFD, 0xF8, 0x00, 0x01, 0x02, 0x00, 0x02, 0x1C, 0x25, 0x17, 0x13, 0x0B, 0x06, 0x01, 0xFE, 0x02, 
0x03, 0x01, 0x04, 0xF8, 0x01, 0xFF, 0xF7, 0xF6, 0x02, 0xFF, 0x01, 0x02, 0x0E, 0x15, 0x0F, 0xFF, 
0xFD, 0x03, 0x04, 0xFF, 0x04, 0xFD, 0xFB, 0xFD, 0xFA, 0x1D, 0xF9, 0xFA, 0xF8, 0xF2, 0xF6, 0xF8, 
0xFC, 0xFA, 0xFE, 0xFF, 0x07, 0x03, 0x02, 0x04, 0x01, 0x03, 0xEB, 0xFC, 0xF7, 0x00, 0x07, 0xFD, 
0x02, 0x00, 0x00, 0x07, 0xFC, 0xFE, 0x04, 0x08, 0xFB, 0x04, 0xFF, 0x05, 0xFF, 0x0F, 0xFF, 0x01, 
0x01, 0x02, 0x03, 0xFE, 0xFC, 0x03, 0x05, 0x04, 0xF7, 0xFE, 0x05, 0xFB, 0x06, 0x05, 0x0B, 0x00, 
0x02, 0x09, 0x0C, 0x02, 0xFC, 0x03, 0xFF, 0xFD, 0x04, 0x01, 0xFF, 0xFD, 0xFF, 0xDE, 0xDD, 0xE2, 
0xEE, 0xF9, 0x06, 0x0E, 0x0D, 0x09, 0x0F, 0x09, 0x0C, 0xFE, 0xFE, 0xFF, 0xFD, 0xFA, 0x14, 0x17, 
0x05, 0xFB, 0xF8, 0xF1, 0xF0, 0xF0, 0xF4, 0xFF, 0x00, 0x07, 0xFF, 0x00, 0xF7, 0xFB, 0x03, 0x08, 
0x0A, 0x0A, 0xFC, 0xFE, 0x00, 0xFE, 0xFD, 0x04, 0x00, 0x00, 0xFE, 0x06, 0x04, 0x04, 0x09, 0x07, 
0x22, 0x1C, 0x10, 0x17, 0x14, 0x02, 0x06, 0x06, 0x04, 0x00, 0xF3, 0x06, 0xF7, 0xFC, 0xFE, 0xFD, 
0xFA, 0xFF, 0x08, 0x0C, 0xFC, 0xF9, 0x05, 0x08, 0xFE, 0xFF, 0xFE, 0xFF, 0xFD, 0x08, 0x05, 0x02, 
0x01, 0x03, 0xE6, 0xFA, 0xE7, 0xFE, 0xFC, 0x00, 0xFC, 0xFF, 0xFE, 0x05, 0x00, 0x02, 0x02, 0x04, 
0xFB, 0x01, 0x01, 0x03, 0xFC, 0xF0, 0xEC, 0xF1, 0xFB, 0xFA, 0xF3, 0xFD, 0x01, 0x02, 0x02, 0x02, 
0x01, 0xFF, 0x02, 0xFC, 0xF5, 0xF8, 0x12, 0x0B, 0x08, 0x13, 0x0E, 0x03, 0x04, 0x05, 0x09, 0x03, 
0xFD, 0xFC, 0x04, 0x07, 0x09, 0x10, 0x0E, 0x09, 0x0B, 0x04, 0x02, 0x06, 0x00, 0xFF, 0x00, 0xFF, 
0xFF, 0x01, 0xF9, 0xFE, 0x06, 0x00, 0x11, 0x05, 0x15, 0x0A, 0x06, 0x04, 0x04, 0x05, 0xFD, 0xF8, 
0xFD, 0x08, 0x00, 0x03, 0x04, 0xFA, 0xFB, 0x09, 0x00, 0x00, 0x03, 0xFE, 0xFA, 0xF7, 0xF6, 0xFC, 
0xFE, 0x04, 0x05, 0xF8, 0xF9, 0xF9, 0x0B, 0xF7, 0x02, 0x04, 0x01, 0x03, 0x02, 0xFF, 0xF6, 0xF7, 
0x00, 0x0E, 0x06, 0x0E, 0x03, 0xFE, 0x00, 0x03, 0x01, 0x04, 0x04, 0x09, 0xFF, 0x02, 0xFF, 0x02, 
0xFE, 0x08, 0x03, 0x05, 0xFA, 0x01, 0xFC, 0x04, 0xFF, 0x05, 0x00, 0xFF, 0x04, 0xF8, 0xF8, 0xFB, 
0xFD, 0xFB, 0x02, 0xFF, 0x00, 0x01, 0x00, 0xFE, 0x05, 0xFB, 0x08, 0x01, 0x03, 0x05, 0x01, 0xFE, 
0xF3, 0xFA, 0xF8, 0x02, 0x02, 0xFA, 0xFF, 0xFA, 0x04, 0xFF, 0xFB, 0x01, 0x00, 0x03, 0x00, 0x03, 
0xFD, 0xF8, 0xF4, 0xF6, 0xFE, 0xFE, 0xFF, 0x06, 0x04, 0x07, 0x04, 0x03, 0xFE, 0x01, 0x07, 0x06, 
0x04, 0x05, 0x09, 0x0D, 0x06, 0x06, 0x03, 0xFD, 0xFA, 0x07, 0x05, 0x09, 0x09, 0x02, 0xF9, 0xFC, 
0x03, 0xFF, 0xF6, 0xF3, 0xFA, 0xFE, 0x03, 0x07, 0x04, 0x04, 0x0D, 0xFE, 0x0A, 0x06, 0x02, 0xFE, 
0x04, 0xFD, 0x01, 0xFE, 0xFE, 0x09, 0x0A, 0x0B, 0x06, 0x02, 0x08, 0xFE, 0x02, 0xFB, 0x03, 0xFC, 
0x07, 0xFF, 0xFF, 0xFE, 0x03, 0x0D, 0x05, 0x06, 0x08, 0x06, 0x06, 0xFC, 0x04, 0x02, 0xF8, 0x07, 
0x0B, 0xFC, 0xF8, 0x03, 0x02, 0x00, 0xF4, 0xF4, 0xF2, 0xF6, 0x07, 0xF4, 0x01, 0xF9, 0xF8, 0x00, 
0xFE, 0xFA, 0xF6, 0x02, 0x0A, 0x07, 0x06, 0xFD, 0xF6, 0xF4, 0xFA, 0x00, 0x03, 0x00, 0x04, 0x06, 
0x09, 0x03, 0x05, 0xFE, 0x01, 0x04, 0x0A, 0x05, 0xFF, 0xEE, 0xF4, 0xFF, 0x0C, 0x02, 0x02, 0x06, 
0xF9, 0x02, 0x04, 0x0E, 0x04, 0x07, 0xFE, 0xF9, 0xFC, 0xFD, 0xFA, 0x03, 0xFD, 0xFE, 0xFE, 0xF4, 
0xFF, 0xF7, 0xFA, 0xF7, 0xF7, 0xFA, 0x01, 0x02, 0x01, 0xFE, 0xF8, 0xEF, 0xF4, 0x00, 0x03, 0x08, 
0x01, 0x00, 0xFF, 0x06, 0x00, 0x06, 0xFC, 0xFE, 0xF8, 0x00, 0x05, 0xFE, 0xED, 0xFC, 0x06, 0x05, 
0x08, 0x04, 0x0D, 0x05, 0x06, 0x09, 0xF8, 0xFE, 0xFF, 0xFC, 0xFB, 0xFA, 0x02, 0x01, 0x02, 0xF3, 
0xEE, 0xF1, 0xF2, 0xF8, 0xF8, 0xF8, 0xFA, 0xFF, 0xFF, 0xFD, 0x00, 0x00, 0xFD, 0x01, 0x01, 0x04, 
0xFF, 0xFB, 0xF9, 0xFC, 0xFB, 0x03, 0x00, 0x01, 0xFF, 0x01, 0x05, 0x08, 0x08, 0x08, 0x0B, 0x05, 
0x06, 0x06, 0x0A, 0x05, 0x01, 0x06, 0x04, 0x06, 0x08, 0x08, 0x00, 0x04, 0x01, 0xFB, 0xF7, 0xF4, 
0xF6, 0xF0, 0xEE, 0xEC, 0xEB, 0xE8, 0xF1, 0xF1, 0xF1, 0xF5, 0xEA, 0xFC, 0x06, 0x03, 0xFD, 0xFC, 
0xF8, 0xFA, 0x01, 0x02, 0xFC, 0xF7, 0xFA, 0xFB, 0xFB, 0xF9, 0x01, 0x00, 0xFC, 0xFC, 0x00, 0x03, 
0x09, 0x05, 0x03, 0xFE, 0xFA, 0xFB, 0xF9, 0xF8, 0xF9, 0xFA, 0x00, 0x00, 0xFE, 0xFF, 0xFF, 0xFC, 
0xFC, 0xFA, 0xFF, 0xFC, 0xF9, 0xFA, 0x02, 0x04, 0x03, 0x03, 0x07, 0x03, 0xFB, 0x03, 0xFC, 0xFE, 
0x00, 0x02, 0x06, 0x05, 0x07, 0x0B, 0x0D, 0x0B, 0x06, 0x04, 0x03, 0xFB, 0xFF, 0xF2, 0xF9, 0x03, 
0xFA, 0xF8, 0xF5, 0x00, 0x01, 0x08, 0x0B, 0x11, 0x14, 0x17, 0x13, 0x0A, 0x0E, 0x0D, 0x09, 0x0C, 
0x00, 0xFB, 0xFB, 0xFE, 0x02, 0x01, 0x03, 0x01, 0x07, 0x0B, 0x09, 0x0D, 0x10, 0x10, 0x10, 0x12, 
0x17, 0x03, 0x04, 0x06, 0x03, 0xFF, 0x01, 0x05, 0x0A, 0x02, 0x04, 0xFB, 0xFC, 0x00, 0x02, 0x06, 
0x0B, 0x0B, 0xF9, 0x0C, 0x0D, 0x13, 0x07, 0x01, 0xFE, 0x00, 0xFC, 0x00, 0xFF, 0x02, 0x09, 0x09, 
0x08, 0x06, 0x13, 0x0B, 0x06, 0x0D, 0x01, 0x01, 0x03, 0x03, 0x00, 0xFB, 0xF3, 0xF0, 0xF9, 0xF5, 
0xF8, 0xF6, 0x00, 0xF6, 0xF4, 0xF9, 0xFE, 0xFF, 0xFE, 0xFF, 0xFF, 0xFC, 0x06, 0x07, 0x04, 0x03, 
0x04, 0x03, 0x08, 0x06, 0x11, 0x06, 0xFD, 0x00, 0x01, 0x04, 0x07, 0x03, 0x00, 0x00, 0xFE, 0x02, 
0x00, 0x01, 0xFE, 0x05, 0x05, 0x05, 0xFF, 0xFA, 0xFF, 0x00, 0x04, 0x04, 0x05, 0x00, 0xFE, 0xFB, 
0xFE, 0x03, 0x09, 0x0C, 0x0E, 0x02, 0xFE, 0x03, 0xFB, 0x01, 0x01, 0xFF, 0xF8, 0xF1, 0xF1, 0xFB, 
0xFB, 0xFE, 0x02, 0xF7, 0xF3, 0xF7, 0xF7, 0xE4, 0x00, 0x00, 0x00, 0x00, 0xFF, 0x00, 0x00, 0xFF, 
0x00, 0xFF, 0x00, 0xFF, 0x00, 0x00, 0xFE, 0xFF, 0xFF, 0x00, 0x00, 0x00, 0x00, 0x00, 0x00, 0x00, 
0x00, 0x00, 0x00, 0x00, 0x00, 0x00, 0x00, 0x00, 0x00, 0x00, 0x00, 0x00, 0x00, 0x01, 0x00, 0x01, 
0x00, 0x00, 0x00, 0x00, 0x01, 0x00, 0x00, 0x00, 0x00, 0x00, 0x00, 0xFF, 0xFF, 0x00, 0x01, 0x01, 
0x00, 0x00, 0x00, 0x00, 0x00, 0x00, 0x00, 0xFF, 0x00, 0x00, 0x00, 0x00, 0x00, 0x01, 0xFF, 0xFF, 
0x00, 0x01, 0x01, 0x00, 0xFF, 0x01, 0x01, 0xFF, 0xFE, 0xFF, 0xFF, 0x00, 0xFF, 0x00, 0x01, 0x01, 
0x01, 0x00, 0x00, 0x01, 0x00, 0x00, 0x00, 0x01, 0x00, 0xFF, 0xFF, 0xFF, 0x00, 0x00, 0xFF, 0x00, 
0x00, 0xFF, 0xFF, 0xFF, 0xFF, 0x00, 0xFF, 0xFF, 0x00, 0xFF, 0xFF, 0xFF, 0xFF, 0xFE, 0x00, 0x00, 
0x01, 0x00, 0xFF, 0x00, 0xFF, 0x00, 0x00, 0x00, 0xFF, 0x00, 0x00, 0xFF, 0xFE, 0xFF, 0x00, 0x00, 
0x00, 0x00, 0x00, 0x00, 0x00, 0x00, 0x00, 0x00, 0x00, 0x00, 0x00, 0x00, 0x00, 0x00, 0x00, 0x00, 
0x00, 0x00, 0x00, 0x00, 0x00, 0x01, 0x01, 0x00, 0x00, 0x00, 0x00, 0x00, 0x00, 0x00, 0x00, 0x00, 
0x01, 0x00, 0x00, 0x00, 0x00, 0x00, 0x00, 0x00, 0x01, 0x01, 0x00, 0x00, 0x00, 0x00, 0x00, 0xFF, 
0x00, 0x00, 0x00, 0x01, 0x01, 0x02, 0x01, 0x00, 0x01, 0x01, 0x00, 0x00, 0x00, 0x01, 0x01, 0x00, 
0x00, 0xFF, 0xFF, 0xFF, 0x01, 0xFF, 0x01, 0x01, 0x01, 0x01, 0x00, 0x00, 0x00, 0x00, 0xFF, 0x00, 
0x00, 0x00, 0xFF, 0x00, 0x00, 0x00, 0x00, 0x00, 0x00, 0x00, 0x00, 0x00, 0x00, 0xFF, 0x00, 0x00, 
0x00, 0x00, 0xFF, 0xFF, 0xFF, 0xFF, 0x00, 0x01, 0x01, 0x01, 0x01, 0x00, 0x00, 0x00, 0x00, 0x00, 
0x01, 0x01, 0x00, 0xFF, 0xFF, 0x00, 0xFF, 0x00, 0x00, 0x00, 0xFF, 0x00, 0x00, 0x00, 0x00, 0x00, 
0x00, 0x00, 0xFF, 0xFF, 0xFF, 0xFF, 0xFF, 0x00, 0xFE, 0x04, 0x01, 0x08, 0x13, 0x06, 0xFD, 0xFB, 
0xF9, 0xF8, 0x00, 0x00, 0xFD, 0xF8, 0xFB, 0xF8, 0xFE, 0xFE, 0x04, 0xFC, 0xF7, 0xFC, 0x04, 0x04, 
0x01, 0x04, 0x02, 0x00, 0xFF, 0x02, 0xFE, 0xFE, 0xFF, 0x00, 0xEB, 0xF5, 0xF0, 0x09, 0x0E, 0x09, 
0x08, 0x0A, 0x04, 0x02, 0xFD, 0x04, 0x04, 0x02, 0xFC, 0x03, 0x00, 0x06, 0x17, 0x0E, 0xF9, 0xF5, 
0xF8, 0xF7, 0xFB, 0xFF, 0x03, 0x07, 0x05, 0xFF, 0xFD, 0xFD, 0xFF, 0x00, 0x05, 0x13, 0xFE, 0xF9, 
0x04, 0xFB, 0xFA, 0xFB, 0xFC, 0xFF, 0x04, 0xFD, 0xFD, 0xFF, 0xFB, 0xFB, 0xF8, 0xF9, 0xEE, 0xF0, 
0x00, 0x03, 0x03, 0x01, 0x01, 0x0A, 0x0C, 0x03, 0x05, 0x01, 0xF9, 0xFE, 0xF8, 0xF6, 0x05, 0x11, 
0x0B, 0xF8, 0xF8, 0xFA, 0xF5, 0x01, 0x03, 0x04, 0xFB, 0x06, 0xF6, 0xFB, 0x02, 0x01, 0x00, 0x02, 
0x02, 0x04, 0xF4, 0x03, 0xFD, 0xFE, 0x05, 0x04, 0xFC, 0xFD, 0xFC, 0x01, 0x02, 0x02, 0x01, 0x03, 
0x0F, 0x04, 0x09, 0xFC, 0xF5, 0xF6, 0xF8, 0xFB, 0xFF, 0x04, 0x04, 0x05, 0x02, 0x01, 0x07, 0x02, 
0xFD, 0xF8, 0xFE, 0xEA, 0xF3, 0xFA, 0xF6, 0xF8, 0xF8, 0xFA, 0xEE, 0xF1, 0xFC, 0xFC, 0xFC, 0xFC, 
0xFB, 0xFD, 0x0D, 0x0C, 0x00, 0x00, 0xFB, 0x07, 0x07, 0x02, 0x02, 0x04, 0xFA, 0x03, 0x06, 0xFF, 
0xFD, 0x08, 0x04, 0xEF, 0xF8, 0x0A, 0x07, 0x02, 0x02, 0xFE, 0x02, 0xFD, 0xFB, 0x01, 0x0A, 0x00, 
0xFB, 0xFB, 0xFE, 0xFC, 0xE9, 0x01, 0xFB, 0xF2, 0x00, 0x05, 0xFC, 0xF9, 0xFA, 0xF7, 0x04, 0x06, 
0xFC, 0xFA, 0x07, 0x05, 0x06, 0xF8, 0x03, 0x0A, 0x04, 0x00, 0x00, 0x01, 0x05, 0x05, 0x05, 0x06, 
0x05, 0x02, 0x00, 0x04, 0x0A, 0x07, 0xFD, 0x06, 0x12, 0xF8, 0xFF, 0x01, 0xF8, 0xFD, 0xFA, 0xFE, 
0xFC, 0x04, 0xF9, 0x03, 0x02, 0xF6, 0x03, 0x03, 0xF8, 0x06, 0x02, 0x01, 0x04, 0x03, 0x09, 0x02, 
0x02, 0x05, 0x01, 0xFF, 0x05, 0x03, 0x0E, 0x08, 0x00, 0x00, 0x00, 0x00, 0x00, 0x00, 0x00, 0x00, 
0x00, 0x00, 0x00, 0x00, 0x00, 0x00, 0x00, 0x00, 0x00, 0x00, 0x00, 0x00, 0x00, 0x00, 0x00, 0x00, 
0x00, 0x00, 0x00, 0x00, 0x00, 0x00, 0x00, 0x00, 0x00, 0x00, 0x00, 0x00, 0x00, 0x00, 0x00, 0x00, 
0x00, 0x00, 0x00, 0x00, 0x00, 0x00, 0x00, 0x00, 0x00, 0x00, 0x00, 0x00, 0x00, 0x00, 0x00, 0x00, 
0x00, 0x00, 0x00, 0x00, 0x00, 0x00, 0x00, 0x00, 0x00, 0x00, 0x00, 0x00, 0x00, 0x00, 0x00, 0x00, 
0x00, 0x00, 0x00, 0x00, 0x00, 0x00, 0x00, 0x00, 0x00, 0x00, 0x00, 0x00, 0x00, 0x00, 0x00, 0x00, 
0x00, 0x00, 0x00, 0x00, 0x00, 0x00, 0x00, 0x00, 0x00, 0x00, 0x00, 0x00, 0x00, 0x00, 0x00, 0x00, 
0x00, 0x00, 0x00, 0x00, 0x00, 0x00, 0x00, 0x00, 0x00, 0x00, 0x00, 0x00, 0x00, 0x00, 0x00, 0x00, 
0x00, 0x00, 0x00, 0x00, 0x00, 0x00, 0x00, 0x00, 0x00, 0x00, 0x00, 0x00, 0x00, 0x00, 0x00, 0x00, 
0x00, 0x00, 0x00, 0x00, 0x00, 0x00, 0x00, 0x00, 0x00, 0x00, 0x00, 0x00, 0x00, 0x00, 0x00, 0x00, 
0x00, 0x00, 0x00, 0x00, 0x00, 0x00, 0x00, 0x00, 0x00, 0x00, 0x00, 0x00, 0x00, 0x00, 0x00, 0x00, 
0x00, 0x00, 0x00, 0x00, 0x00, 0x00, 0x00, 0x00, 0x00, 0x00, 0x00, 0x00, 0x00, 0x00, 0x00, 0x00, 
0x00, 0x00, 0x00, 0x00, 0x00, 0x00, 0x00, 0x00, 0x00, 0x00, 0x00, 0x00, 0x00, 0x00, 0x00, 0x00, 
0x00, 0x00, 0x00, 0x00, 0x00, 0x00, 0x00, 0x00, 0x00, 0x00, 0x00, 0x00, 0x00, 0x00, 0x00, 0x00, 
0x00, 0x00, 0x00, 0x00, 0x00, 0x00, 0x00, 0x00, 0x00, 0x00, 0x00, 0x00, 0x00, 0x00, 0x00, 0x00, 
0x00, 0x00, 0x00, 0x00, 0x00, 0x00, 0x00, 0x00, 0x00, 0x00, 0x00, 0x00, 0x00, 0x00, 0x00, 0x00, 
0x00, 0x00, 0x00, 0x00, 0x00, 0x00, 0x00, 0x00, 0x00, 0x00, 0x00, 0x00, 0x00, 0x00, 0x00, 0x00, 
0x00, 0x00, 0x00, 0x00, 0x00, 0x00, 0x00, 0x00, 0x03, 0x06, 0x07, 0x05, 0x01, 0x00, 0x01, 0x04, 
0x07, 0x0C, 0x09, 0x07, 0x01, 0x00, 0x02, 0x01, 0x05, 0xF6, 0xF8, 0xF5, 0xF9, 0xFB, 0xFF, 0x00, 
0x03, 0x01, 0x04, 0x08, 0x07, 0xFE, 0x05, 0x06, 0x0B, 0x0A, 0x00, 0x02, 0x0B, 0x08, 0x00, 0x02, 
0x03, 0xFE, 0x00, 0x04, 0x03, 0xFD, 0xFF, 0xFA, 0xF6, 0xFC, 0xF7, 0x0F, 0x01, 0xFF, 0x01, 0x00, 
0xF7, 0xF5, 0xFA, 0xFE, 0xFD, 0xF9, 0xF9, 0xF9, 0xFA, 0xFD, 0xFF, 0x01, 0x03, 0x02, 0x01, 0x06, 
0x02, 0x03, 0x08, 0x05, 0x04, 0x05, 0x05, 0x07, 0x00, 0x01, 0xFB, 0xFE, 0xFE, 0x01, 0x05, 0x01, 
0xFC, 0x00, 0x00, 0x03, 0x02, 0x02, 0x02, 0x04, 0x0B, 0x09, 0x0B, 0x09, 0x0B, 0x02, 0x01, 0xFC, 
0xF5, 0xFC, 0x02, 0x04, 0x06, 0x06, 0x04, 0x08, 0x05, 0x03, 0x09, 0x0A, 0x0E, 0x05, 0x04, 0x00, 
0xF5, 0xF5, 0xFB, 0xFB, 0xFB, 0xFA, 0xFD, 0xFD, 0xFB, 0xFC, 0xFC, 0xF9, 0xFB, 0xF9, 0xF6, 0xFC, 
0x01, 0x00, 0xF4, 0xFB, 0xFE, 0xFD, 0xFA, 0x01, 0x02, 0xFD, 0x02, 0x00, 0x03, 0xFA, 0xFF, 0xFC, 
0xF6, 0x07, 0x05, 0x0A, 0xFE, 0xFF, 0x0A, 0x09, 0x05, 0x02, 0x0E, 0x07, 0x07, 0x06, 0x01, 0xFE, 
0x01, 0xFF, 0xFF, 0x12, 0x0A, 0x0E, 0x0D, 0xFF, 0xFB, 0xFE, 0xFB, 0xFF, 0x03, 0x02, 0x05, 0x03, 
0x05, 0x07, 0x07, 0xFE, 0x01, 0xF8, 0x02, 0x07, 0x01, 0xFE, 0xFF, 0x03, 0x02, 0xF9, 0xFF, 0x02, 
0x00, 0x00, 0x01, 0x00, 0x04, 0x03, 0x08, 0x09, 0xFD, 0xFD, 0x06, 0x07, 0xFF, 0x01, 0x05, 0x05, 
0x05, 0x01, 0x05, 0x00, 0x06, 0xF5, 0xFC, 0xFE, 0x0A, 0x09, 0x11, 0x14, 0x0E, 0x0C, 0x0E, 0x10, 
0x0C, 0x0C, 0x07, 0x00, 0x03, 0xF9, 0xFE, 0x03, 0xFF, 0x09, 0x09, 0x05, 0x08, 0x0B, 0x07, 0xFE, 
0x03, 0x00, 0x01, 0xFD, 0xFF, 0xFD, 0x0A, 0x08, 0xFE, 0x09, 0x06, 0x05, 0x06, 0x09, 0x07, 0x04, 
0x05, 0x0A, 0x07, 0x0C, 0x0E, 0x07, 0x08, 0x09, 0x05, 0xFE, 0x01, 0x01, 0x08, 0x0A, 0x04, 0xFC, 
0xFA, 0xFC, 0xF8, 0xF9, 0xFA, 0xFC, 0xFB, 0xFD, 0xF8, 0xF7, 0xF4, 0x06, 0x09, 0x0F, 0x04, 0xFF, 
0xFC, 0xF7, 0xFC, 0x02, 0x01, 0xFB, 0x03, 0x00, 0x08, 0x01, 0x00, 0xE7, 0xEC, 0xE5, 0xEA, 0xF5, 
0xFA, 0x02, 0x03, 0x05, 0x09, 0x09, 0x03, 0x05, 0x02, 0x01, 0x02, 0xF9, 0x06, 0x09, 0x02, 0xFC, 
0xFD, 0xF9, 0xFD, 0x00, 0x01, 0x03, 0x03, 0x03, 0x03, 0x02, 0xFF, 0x02, 0xFB, 0x00, 0xF9, 0xF4, 
0xF5, 0xF5, 0xFC, 0x02, 0xFF, 0xFA, 0xF6, 0x00, 0xFA, 0xFF, 0xFE, 0x02, 0x06, 0x0A, 0x0C, 0x06, 
0x02, 0xF9, 0xEC, 0xEE, 0xFA, 0xFE, 0xFD, 0x00, 0xFF, 0xFB, 0xFF, 0xFA, 0x00, 0xFB, 0x01, 0x02, 
0x0E, 0x07, 0x07, 0x08, 0x02, 0xFC, 0xF9, 0xF4, 0xFC, 0xFB, 0xFE, 0xFD, 0x07, 0x00, 0xFB, 0x10, 
0x0D, 0x07, 0x11, 0x11, 0x0F, 0x04, 0x00, 0xFC, 0xF8, 0xF7, 0xF9, 0xFA, 0xFF, 0x02, 0x08, 0x05, 
0xFE, 0xED, 0xF6, 0xFD, 0xF9, 0x03, 0x00, 0xFB, 0xFE, 0xFB, 0x00, 0xFF, 0x05, 0xFE, 0xFF, 0x02, 
0xF6, 0xFB, 0x00, 0x05, 0xFD, 0x00, 0x01, 0xFE, 0x05, 0x01, 0xFE, 0x02, 0x03, 0xFE, 0xFC, 0xFE, 
0xFD, 0xFE, 0x0B, 0xF2, 0x05, 0x09, 0x05, 0x07, 0x04, 0x07, 0x06, 0x03, 0x07, 0x0B, 0x07, 0x03, 
0x00, 0x02, 0x0B, 0xFF, 0xFE, 0x08, 0x02, 0x01, 0x05, 0x05, 0x08, 0x06, 0x04, 0x02, 0xFF, 0x00, 
0x01, 0x04, 0x04, 0xFF, 0xFF, 0xFC, 0xF7, 0xEC, 0xF3, 0xF1, 0xFA, 0xFE, 0xFF, 0x00, 0x03, 0x07, 
0x09, 0xFF, 0x03, 0x05, 0x03, 0x02, 0x02, 0x00, 0x0D, 0x10, 0x0E, 0x03, 0xFD, 0xFF, 0xFC, 0x02, 
0x00, 0xFD, 0xFB, 0x00, 0x01, 0x03, 0x00, 0xFE, 0xFB, 0x00, 0x01, 0x05, 0x02, 0x00, 0x03, 0x03, 
0xFB, 0xFF, 0xFD, 0xFB, 0xFD, 0xFA, 0xFC, 0x05, 0x16, 0x15, 0x14, 0x10, 0x0F, 0x05, 0xF9, 0xF8, 
0xF9, 0xF7, 0xFE, 0x02, 0xF9, 0xFF, 0x02, 0xFF, 0x06, 0x01, 0x03, 0x04, 0x07, 0x09, 0x09, 0x00, 
0xFE, 0xFE, 0x04, 0x03, 0x03, 0x02, 0x06, 0x02, 0x02, 0xFE, 0x07, 0xFD, 0x04, 0x02, 0x03, 0x00, 
0xFF, 0xFE, 0x04, 0x04, 0x02, 0xFF, 0x00, 0x01, 0xFF, 0xF8, 0x0B, 0x10, 0x07, 0xFF, 0xF9, 0xFC, 
0x04, 0x02, 0xFF, 0xFE, 0xFE, 0xFF, 0xFC, 0x04, 0xFE, 0x00, 0xF1, 0xDF, 0xDC, 0xE9, 0xFA, 0xFC, 
0xFD, 0xF9, 0xFA, 0xFB, 0x01, 0x03, 0x05, 0x05, 0x04, 0x07, 0x06, 0xF9, 0xFF, 0x08, 0x07, 0x02, 
0x02, 0x04, 0x00, 0x00, 0x05, 0xFE, 0xFF, 0x03, 0x03, 0x05, 0x03, 0x0E, 0x0D, 0xFE, 0xF9, 0xFA, 
0xFF, 0xFE, 0x01, 0x04, 0x04, 0x05, 0x08, 0x09, 0x07, 0x02, 0xFA, 0xFE, 0xFE, 0xFB, 0x0D, 0xFB, 
0xFB, 0xF9, 0xFC, 0xFD, 0xF9, 0xFC, 0xFF, 0xFE, 0xFE, 0x03, 0x02, 0xFA, 0xFA, 0xF5, 0xFC, 0xDB, 
0xE2, 0xEA, 0xF4, 0x01, 0x05, 0x08, 0x08, 0x0D, 0x0B, 0x08, 0x06, 0x04, 0xFD, 0x01, 0x00, 0x02, 
0x0E, 0x09, 0x01, 0x01, 0xFF, 0xFD, 0x02, 0x04, 0xFD, 0xFC, 0xFF, 0xFC, 0xFB, 0xFE, 0x03, 0xF8, 
0xF7, 0xFC, 0xFD, 0x04, 0x04, 0x00, 0x00, 0xFE, 0xFF, 0xFD, 0xFB, 0xFD, 0x00, 0x01, 0xFF, 0x04, 
0x00, 0x00, 0x01, 0x08, 0x07, 0x03, 0x02, 0x01, 0x04, 0x03, 0x00, 0xFE, 0xFB, 0xFB, 0xFF, 0xFE, 
0xFC, 0x00, 0xF5, 0x19, 0x06, 0xFD, 0xFB, 0xFB, 0xFC, 0xFC, 0xF9, 0xFD, 0xFC, 0xFF, 0x04, 0x02, 
0x07, 0x07, 0x00, 0xFF, 0xFE, 0xFA, 0x00, 0x01, 0xFD, 0xFE, 0xF9, 0xFA, 0x00, 0x00, 0xFA, 0xF5, 
0xF6, 0xF6, 0xF9, 0xFF, 0x0B, 0x36, 0x18, 0x0E, 0x06, 0x07, 0x04, 0x05, 0x04, 0x02, 0xFE, 0xFE, 
0xF9, 0xF8, 0xF7, 0xFD, 0xFC, 0x05, 0x08, 0x0D, 0x09, 0x05, 0x00, 0xFB, 0xFB, 0xFE, 0xFE, 0xFC, 
0xF8, 0x02, 0x00, 0x00, 0x04, 0xFD, 0x08, 0x11, 0x07, 0x05, 0xFF, 0xFB, 0xFC, 0xFC, 0xFC, 0xFA, 
0xFA, 0xFA, 0xFD, 0x01, 0xFB, 0xFF, 0xFE, 0xF4, 0xF8, 0xF5, 0x01, 0x00, 0x00, 0x00, 0x02, 0xFE, 
0xF7, 0xFC, 0x06, 0xFF, 0x01, 0x07, 0x08, 0x09, 0x0C, 0xEA, 0x0E, 0x0B, 0x03, 0x05, 0x06, 0x09, 
0x0B, 0x02, 0xFA, 0xFE, 0xFC, 0x01, 0xFB, 0x08, 0xFA, 0xFA, 0xF5, 0xFE, 0x05, 0xFE, 0xFF, 0xFD, 
0xF9, 0xF9, 0xFF, 0xFF, 0x07, 0xFB, 0xFF, 0xFB, 0x09, 0xF1, 0xF5, 0x16, 0xFC, 0xFC, 0xF8, 0xF7, 
0xFB, 0x00, 0x05, 0x06, 0x01, 0x04, 0x04, 0x01, 0x01, 0xFC, 0x07, 0xFD, 0xFC, 0xF5, 0x06, 0x04, 
0x01, 0x09, 0x15, 0x12, 0x05, 0xFF, 0xFE, 0xFF, 0x03, 0x09, 0x0D, 0x0E, 0x0D, 0x09, 0x03, 0xF9, 
0xFA, 0xFB, 0x03, 0x03, 0xF9, 0xFC, 0x08, 0x0B, 0x0F, 0x04, 0x06, 0x05, 0x04, 0x08, 0x0E, 0x07, 
0x05, 0x07, 0x09, 0x02, 0x01, 0xFE, 0xFF, 0x00, 0x01, 0x06, 0x09, 0x04, 0x01, 0xF7, 0xFB, 0x0D, 
0xF8, 0xFF, 0xFD, 0x03, 0x04, 0x07, 0x01, 0xFB, 0xFB, 0xFD, 0xFB, 0xFB, 0xFD, 0x01, 0x01, 0x00, 
0x01, 0x01, 0xFC, 0x04, 0x02, 0xFE, 0xFC, 0xFE, 0x01, 0x02, 0xFF, 0xFE, 0xF9, 0xFD, 0x09, 0x01, 
0xEF, 0xE7, 0xF2, 0x05, 0x07, 0xFF, 0x07, 0x12, 0x0E, 0x02, 0x03, 0x07, 0x05, 0x03, 0x05, 0x03, 
0x05, 0x0E, 0x14, 0x11, 0xFA, 0x03, 0x02, 0xFB, 0xF7, 0xFD, 0x00, 0xFC, 0xFE, 0x00, 0xFC, 0x03, 
0x04, 0xFA, 0xF3, 0x09, 0xF7, 0xFC, 0x0D, 0x07, 0x07, 0x0E, 0x08, 0x06, 0x03, 0x09, 0x09, 0x0B, 
0x0D, 0xFE, 0xFD, 0xF4, 0xE7, 0xF4, 0xFE, 0x0B, 0x00, 0x03, 0x09, 0x06, 0xFD, 0xF3, 0x02, 0x05, 
0x03, 0xFE, 0x01, 0x07, 0x0A, 0xFB, 0xFC, 0xFD, 0x0B, 0x03, 0xFC, 0xF9, 0xFF, 0xFD, 0x00, 0xFE, 
0x02, 0x07, 0x07, 0x03, 0x08, 0x0A, 0x1B, 0x06, 0x04, 0x0E, 0x04, 0x03, 0x02, 0x08, 0x05, 0xFB, 
0x02, 0x09, 0x08, 0x06, 0x06, 0x03, 0x00, 0x16, 0x01, 0x09, 0x01, 0x02, 0xFC, 0xF6, 0xF6, 0xF5, 
0xFB, 0xF8, 0x00, 0xFB, 0xFE, 0xFD, 0x01, 0xF5, 0x01, 0x03, 0x02, 0x00, 0x04, 0x04, 0x05, 0x07, 
0x00, 0xFB, 0x00, 0xFA, 0xF5, 0xF2, 0xF8, 0xFA, 0xFF, 0x1E, 0x0C, 0x13, 0x14, 0x12, 0x0D, 0x0C, 
0x06, 0x04, 0xFA, 0xF7, 0xFA, 0xF9, 0xF7, 0xF7, 0xF4, 0xE8, 0x0B, 0x06, 0xFA, 0xFB, 0xFC, 0xFE, 
0xFD, 0xFD, 0x01, 0xFE, 0xFC, 0xFA, 0xFE, 0xF8, 0xFE, 0x03, 0xF6, 0x0E, 0x07, 0x04, 0x0C, 0x0A, 
0x0B, 0x0A, 0x02, 0xFD, 0xFD, 0x03, 0x04, 0xFF, 0xFD, 0xFB, 0x01, 0x00, 0x07, 0x08, 0x06, 0x02, 
0x05, 0x04, 0xFE, 0xFD, 0xFC, 0x00, 0xFE, 0x03, 0x00, 0x00, 0xF8, 0xF6, 0xEE, 0xF9, 0xF8, 0xFE, 
0x00, 0x07, 0x07, 0x07, 0x06, 0x02, 0x04, 0x01, 0x01, 0x03, 0xFD, 0x03, 0x03, 0x00, 0x08, 0x08, 
0x01, 0x04, 0x01, 0x04, 0x04, 0x05, 0x02, 0x03, 0xFF, 0xFF, 0xFA, 0xF8, 0xFD, 0x00, 0x01, 0xFD, 
0x03, 0x02, 0x03, 0x07, 0x0A, 0x0C, 0x06, 0xFC, 0xF3, 0xF4, 0xF6, 0xFD, 0xFD, 0x00, 0xFF, 0x03, 
0xFE, 0xFE, 0x01, 0xFD, 0xF4, 0xF2, 0xF6, 0xFA, 0xFD, 0xFD, 0xFF, 0x00, 0x07, 0x05, 0x0A, 0x09, 
0x1C, 0x03, 0x01, 0x01, 0x09, 0x0E, 0x12, 0x14, 0x0E, 0x08, 0x06, 0xFC, 0x02, 0x02, 0x04, 0x04, 
0x09, 0x07, 0xF0, 0xF7, 0xF7, 0xFF, 0xFB, 0xFA, 0xFD, 0xFB, 0x03, 0x02, 0xFB, 0xFF, 0x04, 0x03, 
0x00, 0xFB, 0xFA, 0xF6, 0x0D, 0x0B, 0x16, 0x11, 0x0C, 0x0D, 0x07, 0x08, 0x03, 0x08, 0x0C, 0x06, 
0xFF, 0xF6, 0xFC, 0xE6, 0x04, 0x03, 0x0D, 0x06, 0x03, 0x06, 0x05, 0x03, 0x03, 0x05, 0x05, 0x02, 
0x00, 0xFF, 0x06, 0x02, 0x03, 0xF9, 0x01, 0x0B, 0x05, 0x00, 0xFE, 0x01, 0x04, 0x04, 0x03, 0x00, 
0x02, 0x02, 0xFA, 0xFB, 0xFD, 0xEA, 0xFB, 0x0B, 0x08, 0xF7, 0xF1, 0xEE, 0xF8, 0xFB, 0xFB, 0xFB, 
0x01, 0xFE, 0xFF, 0xFB, 0xFD, 0xF8, 0xF5, 0x05, 0x0A, 0x03, 0x00, 0xFE, 0xFA, 0xF8, 0xFF, 0x02, 
0x09, 0x08, 0x06, 0x02, 0x09, 0x06, 0x0D, 0xFF, 0x00, 0xF9, 0xFB, 0xFF, 0x04, 0x04, 0xFD, 0xFF, 
0x02, 0xFF, 0x01, 0xFB, 0x03, 0x06, 0x0A, 0x0A, 0x05, 0xF6, 0xFA, 0xFD, 0xF9, 0xFE, 0x04, 0x05, 
0x02, 0x01, 0x01, 0x02, 0x07, 0x06, 0x0A, 0x08, 0x04, 0x11, 0xFA, 0xF3, 0xFD, 0x03, 0xFF, 0xFB, 
0xFF, 0x02, 0xFF, 0xFD, 0xF8, 0xF8, 0xF6, 0x03, 0x08, 0x00, 0x09, 0x05, 0xF9, 0x04, 0x04, 0x04, 
0x03, 0x03, 0x03, 0x05, 0x04, 0x06, 0x04, 0x08, 0x06, 0x00, 0xFF, 0xF3, 0xFB, 0xF9, 0xF9, 0xF9, 
0xFD, 0xFC, 0xFB, 0x01, 0x05, 0x01, 0xFF, 0xFD, 0xFD, 0x01, 0x02, 0x03, 0x11, 0xFF, 0xFC, 0xF7, 
0xFC, 0xF7, 0xFB, 0xFD, 0xFE, 0xFC, 0x00, 0x09, 0x05, 0x00, 0xFE, 0xFB, 0xF6, 0xF8, 0x01, 0xFE, 
0xF5, 0xF2, 0xF7, 0xFD, 0xFB, 0xFB, 0xF9, 0xF8, 0xFD, 0x01, 0x04, 0x08, 0x01, 0xFF, 0x03, 0x00, 
0x01, 0xFE, 0xFD, 0x07, 0x08, 0x07, 0x02, 0x00, 0x00, 0x07, 0x0A, 0x0B, 0x05, 0xFE, 0xFB, 0xF8, 
0xFE, 0x04, 0x06, 0x02, 0x00, 0x00, 0xFC, 0x01, 0x05, 0x05, 0x0A, 0x09, 0x02, 0x05, 0x06, 0x07, 
0xFC, 0x04, 0x09, 0xFE, 0xF6, 0xFE, 0x00, 0xF9, 0xF7, 0xFA, 0xFD, 0xF8, 0xF3, 0xF3, 0xF9, 0xF8, 
0xF3, 0xF7, 0xFC, 0xFC, 0xFF, 0x0F, 0x10, 0x0B, 0x0B, 0x0A, 0x0F, 0x0D, 0x05, 0xFF, 0x0A, 0x08, 
0x06, 0x03, 0x0C, 0x01, 0x00, 0x02, 0x09, 0x0D, 0x0E, 0x0C, 0x09, 0x10, 0x05, 0xFD, 0xF6, 0xFF, 
0x05, 0x06, 0x07, 0x05, 0x01, 0x09, 0x06, 0x00, 0x02, 0xFF, 0xF6, 0xF9, 0x00, 0xFF, 0x00, 0xFF, 
0xFF, 0x02, 0xFB, 0xFB, 0xFC, 0xFD, 0xFF, 0x03, 0x09, 0x03, 0x05, 0x04, 0x04, 0x09, 0x07, 0xFB, 
0xF7, 0xF8, 0xF7, 0xFC, 0xFF, 0x07, 0x00, 0xFE, 0x03, 0x03, 0x02, 0x00, 0xF9, 0x02, 0x05, 0x09, 
0x07, 0x06, 0x00, 0x02, 0x07, 0x07, 0x07, 0xFD, 0xF2, 0xEF, 0xF1, 0xF3, 0xF5, 0xF7, 0xF5, 0xF3, 
0xFA, 0xFF, 0xFA, 0xFF, 0xFB, 0xF9, 0xF9, 0xFE, 0xFD, 0xF6, 0xF5, 0xFB, 0xF8, 0xF4, 0xF4, 0xF6, 
0xF7, 0xF4, 0xFB, 0xFC, 0xFE, 0xFB, 0xFB, 0xFC, 0xFC, 0x0B, 0x07, 0x09, 0x03, 0xF7, 0xEF, 0xEE, 
0xFA, 0xF7, 0xFC, 0x02, 0x03, 0x00, 0x01, 0x04, 0x05, 0x03, 0x03, 0x05, 0x00, 0x04, 0x09, 0x0A, 
0xFD, 0x05, 0x09, 0x00, 0x03, 0x05, 0x03, 0x06, 0x01, 0x07, 0x05, 0x01, 0xFC, 0xF7, 0x02, 0x04, 
0x03, 0x05, 0x0B, 0x07, 0x03, 0x03, 0x01, 0xFE, 0x04, 0x00, 0xFD, 0x04, 0xFD, 0xFB, 0xF3, 0xF4, 
0x02, 0x0A, 0x05, 0x03, 0x07, 0x02, 0x00, 0xFC, 0xF9, 0xFD, 0x00, 0xFC, 0xFC, 0x05, 0xFF, 0x02, 
0x00, 0xFF, 0x04, 0xFE, 0xF9, 0xF5, 0xF5, 0xFC, 0xFA, 0xFB, 0xFA, 0x01, 0xFE, 0x02, 0x02, 0xFF, 
0x02, 0x03, 0x01, 0xFF, 0xFF, 0x01, 0x03, 0x05, 0x02, 0x00, 0x04, 0xFC, 0x00, 0x03, 0xFF, 0xFD, 
0x04, 0x07, 0xFD, 0x00, 0x00, 0x01, 0x04, 0x03, 0x06, 0x01, 0x02, 0x03, 0x01, 0xFD, 0x00, 0xFB, 
0x00, 0xFF, 0x02, 0xFE, 0xFD, 0xFA, 0x04, 0x05, 0x05, 0x01, 0x00, 0x02, 0xFE, 0xFC, 0xFF, 0x01, 
0xF4, 0x08, 0x05, 0x13, 0x25, 0x1E, 0x0C, 0xF8, 0xFC, 0xF9, 0xF2, 0xFC, 0x03, 0x04, 0x03, 0x03, 
0x04, 0xF9, 0x02, 0x03, 0x02, 0xF5, 0xFC, 0x03, 0xFF, 0xFE, 0x04, 0x02, 0x04, 0x07, 0x01, 0x01, 
0x05, 0xFE, 0xF9, 0x06, 0x01, 0x0B, 0x07, 0x00, 0xF5, 0xF5, 0xFB, 0x01, 0x05, 0x03, 0x05, 0x04, 
0x02, 0x00, 0x04, 0xFB, 0x01, 0xF6, 0xF5, 0xFE, 0x11, 0x1A, 0x0D, 0xFE, 0x07, 0x06, 0x07, 0x05, 
0x01, 0x08, 0x04, 0x06, 0x01, 0x0B, 0x0E, 0x0D, 0xFC, 0x02, 0x01, 0xFB, 0xFB, 0x01, 0x04, 0x02, 
0xFE, 0x02, 0x02, 0x02, 0x02, 0x05, 0xF8, 0xF8, 0xF0, 0xE8, 0xF6, 0x14, 0x27, 0x19, 0x0E, 0x09, 
0x06, 0x06, 0x01, 0xFF, 0x00, 0xFF, 0xFF, 0x04, 0x04, 0x04, 0x0F, 0x0B, 0x07, 0x03, 0x02, 0x05, 
0x0A, 0x06, 0x01, 0x05, 0xFA, 0x07, 0xFD, 0x07, 0xFF, 0x02, 0x00, 0xF7, 0x01, 0x0A, 0x05, 0x01, 
0x04, 0xFD, 0x07, 0x08, 0x0A, 0x0F, 0x11, 0x0F, 0x0B, 0xFD, 0xFF, 0x00, 0x08, 0x07, 0x02, 0xFB, 
0xFA, 0xFD, 0xFC, 0xFA, 0xFC, 0xF6, 0xFE, 0x01, 0x01, 0x08, 0xFB, 0xFF, 0xF9, 0xFD, 0x05, 0x02, 
0xFE, 0xFA, 0xFA, 0xFB, 0xF8, 0x00, 0x01, 0x0C, 0x04, 0x04, 0x0D, 0x07, 0x08, 0xFF, 0x03, 0x03, 
0x01, 0x01, 0x00, 0xFD, 0xF2, 0xFB, 0x07, 0x08, 0x03, 0x04, 0x03, 0xEC, 0xFF, 0x05, 0x06, 0xFD, 
0xFF, 0xFF, 0xFD, 0xFD, 0x02, 0x03, 0xFA, 0xFF, 0x03, 0x05, 0x09, 0x0F, 0x17, 0xFF, 0x00, 0x03, 
0x05, 0xFE, 0xFB, 0xFF, 0x01, 0x05, 0x06, 0x0B, 0xFF, 0x01, 0xFD, 0xFB, 0xFD, 0x0F, 0xFD, 0x02, 
0xFE, 0xFE, 0x01, 0x04, 0xFF, 0x03, 0x06, 0x09, 0x10, 0x0A, 0x03, 0x03, 0xFE, 0xF8, 0xFD, 0xFE, 
0x03, 0xFC, 0x04, 0x04, 0x0C, 0x07, 0x08, 0x07, 0x04, 0x02, 0xFE, 0xFC, 0x00, 0x00, 0xF8, 0xF1, 
0x02, 0xF9, 0x04, 0xFD, 0x03, 0x00, 0x00, 0x09, 0x03, 0x05, 0x01, 0x04, 0xF8, 0xFB, 0x0B, 0xEA, 
0x06, 0x04, 0x02, 0xF3, 0xFC, 0x0B, 0x18, 0x12, 0x07, 0x03, 0xF8, 0xFB, 0xFF, 0x05, 0x06, 0x0F, 
0x0C, 0x2F, 0xFB, 0xFC, 0x04, 0xFE, 0xF2, 0xFF, 0x03, 0xFA, 0xFC, 0xFF, 0xFD, 0x01, 0xFE, 0xF7, 
0xF5, 0x03, 0x0E, 0xFE, 0x05, 0x0D, 0x05, 0x03, 0x03, 0xFD, 0xF8, 0xF4, 0xF5, 0xFC, 0x04, 0x06, 
0x0D, 0x15, 0x0A, 0x0D, 0xFB, 0x06, 0x06, 0xF7, 0xFF, 0x05, 0x05, 0x00, 0x0B, 0xFE, 0xFB, 0xF6, 
0xF4, 0xF6, 0xF7, 0x00, 0x0C, 0xF7, 0x05, 0x08, 0xF9, 0xFB, 0xFD, 0x00, 0x01, 0x01, 0x07, 0x00, 
0xF5, 0xF3, 0xF8, 0x02, 0x02, 0x1A, 0xFC, 0x07, 0x15, 0xF5, 0xF1, 0xF3, 0x08, 0x0A, 0x0C, 0x0F, 
0x0C, 0x0E, 0x0E, 0x16, 0x09, 0x09, 0x01, 0x0A, 0x09, 0xFB, 0x00, 0x02, 0x04, 0xFF, 0x01, 0x01, 
0x04, 0x02, 0xF9, 0xF8, 0xFA, 0xF5, 0x01, 0x22, 0x00, 0x00, 0x00, 0xFF, 0x00, 0x00, 0xFF, 0xFF, 
0x00, 0x00, 0x00, 0x00, 0x00, 0x01, 0x01, 0x00, 0x00, 0x00, 0x00, 0x00, 0x00, 0x00, 0x00, 0x00, 
0x00, 0x00, 0x00, 0x00, 0x00, 0x00, 0x00, 0x00, 0x00, 0x00, 0x00, 0x00, 0xFF, 0xFF, 0xFF, 0x00, 
0x00, 0x00, 0x00, 0x00, 0x00, 0x00, 0x00, 0x00, 0x00, 0x01, 0x01, 0xFF, 0xFF, 0xFF, 0x00, 0x00, 
0x00, 0x00, 0xFF, 0xFF, 0xFF, 0xFF, 0xFF, 0xFF, 0x00, 0x00, 0x00, 0x00, 0x01, 0x00, 0x00, 0xFF, 
0x00, 0x00, 0x00, 0x00, 0x00, 0x00, 0x00, 0x00, 0xFF, 0xFF, 0x00, 0x01, 0x00, 0x00, 0x01, 0xFF, 
0x00, 0xFF, 0x00, 0x00, 0x00, 0x00, 0x00, 0x00, 0x01, 0x00, 0x00, 0x00, 0x00, 0x00, 0x00, 0x00, 
0x00, 0x00, 0xFF, 0x00, 0x00, 0x00, 0x00, 0x00, 0x00, 0x00, 0x00, 0x00, 0x00, 0x00, 0x00, 0x00, 
0x00, 0x00, 0x00, 0x00, 0x00, 0x00, 0x00, 0x00, 0x00, 0x00, 0x00, 0x00, 0x00, 0xFF, 0x00, 0x00, 
0x00, 0xFF, 0x00, 0x00, 0x00, 0x00, 0x00, 0x00, 0x00, 0x00, 0x00, 0x00, 0x00, 0x00, 0x00, 0x00, 
0x00, 0x00, 0x00, 0xFF, 0xFF, 0x00, 0x00, 0x00, 0x00, 0x01, 0x01, 0x00, 0xFF, 0xFF, 0x00, 0x00, 
0x00, 0x00, 0x00, 0x00, 0x00, 0x00, 0x00, 0x00, 0xFF, 0x00, 0xFF, 0xFF, 0x00, 0x00, 0x00, 0x00, 
0x00, 0x00, 0x00, 0x00, 0x00, 0x01, 0x00, 0x00, 0xFF, 0x00, 0x00, 0x01, 0x01, 0x00, 0x00, 0x00, 
0x00, 0x00, 0x00, 0x00, 0x00, 0x00, 0x00, 0x00, 0x01, 0xFF, 0x00, 0x00, 0x00, 0xFF, 0x00, 0x00, 
0x01, 0x00, 0x00, 0x00, 0x00, 0x01, 0x01, 0x00, 0x00, 0x00, 0x00, 0x00, 0x00, 0x01, 0x01, 0x01, 
0x00, 0x00, 0x00, 0xFF, 0x00, 0x00, 0xFF, 0x00, 0x00, 0x00, 0x00, 0xFF, 0x00, 0x00, 0xFF, 0x00, 
0x00, 0x00, 0x00, 0x00, 0x00, 0xFF, 0x00, 0x00, 0x00, 0x00, 0x00, 0x00, 0x00, 0x00, 0x00, 0x00, 
0x00, 0x00, 0x00, 0x00, 0x00, 0x00, 0x01, 0x01, 0x00, 0x00, 0x00, 0x00, 0x00, 0x00, 0x00, 0x00, 
0x00, 0x00, 0x00, 0x00, 0x00, 0x00, 0x00, 0x00, 0x00, 0x00, 0x00, 0x00, 0x00, 0x00, 0x00, 0x00, 
0x00, 0x00, 0x00, 0x00, 0x00, 0x00, 0x00, 0x00, 0x00, 0x00, 0x00, 0x00, 0x00, 0x00, 0x00, 0x00, 
0x00, 0x00, 0x00, 0x00, 0x00, 0x00, 0x00, 0x00, 0x00, 0x00, 0x00, 0x00, 0x00, 0x00, 0x00, 0x00, 
0x00, 0x00, 0x00, 0x00, 0x00, 0x00, 0x00, 0x00, 0x00, 0x00, 0x00, 0x00, 0x00, 0x00, 0x00, 0x00, 
0x00, 0x00, 0x00, 0x00, 0x00, 0x00, 0x00, 0x00, 0x00, 0x00, 0x00, 0x00, 0x00, 0x00, 0x00, 0x00, 
0x00, 0x00, 0x00, 0x00, 0x00, 0x00, 0x00, 0x00, 0x00, 0x00, 0x00, 0x00, 0x00, 0x00, 0x00, 0x00, 
0x00, 0x00, 0x00, 0x00, 0x00, 0x00, 0x00, 0x00, 0x00, 0x00, 0x00, 0x00, 0x00, 0x00, 0x00, 0x00, 
0x00, 0x00, 0x00, 0x00, 0x00, 0x00, 0x00, 0x00, 0x00, 0x00, 0x00, 0x00, 0x00, 0x00, 0x00, 0x00, 
0x00, 0x00, 0x00, 0x00, 0x00, 0x00, 0x00, 0x00, 0x00, 0x00, 0x00, 0x00, 0x00, 0x00, 0x00, 0x00, 
0x00, 0x00, 0x00, 0x00, 0x00, 0x00, 0x00, 0x00, 0x00, 0x00, 0x00, 0x00, 0x00, 0x00, 0x00, 0x00, 
0x00, 0x00, 0x00, 0x00, 0x00, 0x00, 0x00, 0x00, 0x00, 0x00, 0x00, 0x00, 0x00, 0x00, 0x00, 0x00, 
0x00, 0x00, 0x00, 0x00, 0x00, 0x00, 0x00, 0x00, 0x00, 0x00, 0x00, 0x00, 0x00, 0x00, 0x00, 0x00, 
0x00, 0x00, 0x00, 0x00, 0x00, 0x00, 0x00, 0x00, 0x00, 0x00, 0x00, 0x00, 0x00, 0x00, 0x00, 0x00, 
0x00, 0x00, 0x00, 0x00, 0x00, 0x00, 0x00, 0x00, 0x00, 0x00, 0x00, 0x00, 0x00, 0x00, 0x00, 0x00, 
0x00, 0x00, 0x00, 0x00, 0x00, 0x00, 0x00, 0x00, 0x00, 0x00, 0x00, 0x00, 0x00, 0x00, 0x00, 0x00, 
0x00, 0x00, 0x00, 0x00, 0x00, 0x00, 0x00, 0x00, 0x00, 0x00, 0x00, 0x00, 0x00, 0x00, 0x00, 0x00, 
0x00, 0x00, 0x00, 0x00, 0x00, 0x00, 0x00, 0x00, 0x06, 0x02, 0xFF, 0x00, 0xFB, 0xF7, 0xF9, 0xFF, 
0x02, 0x02, 0x08, 0x0F, 0x15, 0x09, 0x06, 0x04, 0x07, 0xFF, 0x03, 0x06, 0x07, 0x01, 0x05, 0x04, 
0x05, 0x05, 0x05, 0x00, 0x02, 0xF9, 0xF8, 0xFE, 0xF7, 0xF8, 0xFD, 0xF6, 0xF5, 0xFE, 0x01, 0x01, 
0x00, 0xFF, 0xFF, 0x00, 0x01, 0x05, 0xFC, 0x02, 0x00, 0xF2, 0xFF, 0xFF, 0xFD, 0xFF, 0x01, 0x02, 
0x08, 0x05, 0x08, 0x0E, 0x0F, 0xFF, 0xF1, 0xED, 0xF9, 0xFA, 0xF7, 0xFC, 0x00, 0x05, 0x00, 0xFB, 
0xF5, 0xF3, 0xF6, 0xF6, 0xF9, 0x00, 0x0A, 0x04, 0x06, 0xFF, 0xFD, 0xF6, 0xFF, 0xFE, 0x03, 0x03, 
0x05, 0x03, 0x00, 0xFD, 0xFF, 0xFF, 0x04, 0x0D, 0x0F, 0x05, 0x09, 0x08, 0xFE, 0x0A, 0x04, 0xFA, 
0xFB, 0xF9, 0xFF, 0x01, 0xFE, 0xFC, 0xFC, 0xFC, 0xFA, 0xFC, 0xFF, 0x04, 0x01, 0x03, 0xFE, 0x04, 
0x01, 0x00, 0xFD, 0x00, 0x04, 0x04, 0x09, 0x0A, 0x06, 0x02, 0xFE, 0xF0, 0xEC, 0xF4, 0xF1, 0xFD, 
0xFA, 0xFF, 0x04, 0x03, 0x05, 0x04, 0x03, 0xF8, 0xF5, 0xF1, 0xF1, 0xFC, 0xFD, 0x0F, 0x1C, 0x0F, 
0x14, 0x05, 0xFF, 0xFE, 0xFE, 0xF5, 0xF0, 0xF9, 0xFC, 0xF4, 0x00, 0x0F, 0x14, 0x18, 0x0D, 0x0A, 
0xFE, 0xFF, 0xF4, 0xF7, 0xFF, 0xFF, 0x02, 0x00, 0x01, 0x08, 0x04, 0x00, 0xFC, 0xFD, 0xFF, 0xF9, 
0xFB, 0xF8, 0xFB, 0x02, 0x0B, 0x07, 0x02, 0xFB, 0xFF, 0x04, 0x06, 0x0E, 0x13, 0x0E, 0x04, 0xFC, 
0xF6, 0xF4, 0xF1, 0xEE, 0x02, 0x01, 0xFD, 0xFE, 0x00, 0x05, 0xFC, 0xFD, 0x00, 0xFA, 0xF7, 0xF8, 
0x01, 0x06, 0x06, 0x0A, 0x07, 0xFB, 0xFE, 0xFD, 0xFD, 0x00, 0xFC, 0xFC, 0xF5, 0xEF, 0xF2, 0xFE, 
0x0D, 0x0C, 0x10, 0x0A, 0x01, 0x03, 0xF8, 0xFD, 0x00, 0x03, 0x03, 0xFD, 0xFC, 0xFD, 0xFB, 0xF8, 
0xFB, 0xFB, 0x05, 0x0B, 0x07, 0x08, 0x10, 0xF7, 0xFB, 0xF9, 0xFC, 0x02, 0x02, 0xFF, 0xF7, 0xF0, 
0xE9, 0xF1, 0xFA, 0x06, 0x09, 0x04, 0x0C, 0x11, 0xFE, 0x06, 0x02, 0x00, 0x00, 0xFF, 0xFF, 0x02, 
0x05, 0x07, 0x05, 0x07, 0x06, 0x0A, 0x09, 0x0A, 0x09, 0x04, 0x0A, 0x09, 0x00, 0x01, 0x05, 0x03, 
0x01, 0x01, 0x02, 0x06, 0x09, 0x07, 0x07, 0x07, 0xFE, 0x00, 0x01, 0x06, 0x03, 0xFB, 0x02, 0x02, 
0x08, 0x07, 0x02, 0x03, 0x01, 0x00, 0x02, 0x01, 0xFB, 0xED, 0xFE, 0xFD, 0x01, 0x02, 0x06, 0x02, 
0xFC, 0xFB, 0x00, 0x02, 0x08, 0x03, 0x00, 0xFD, 0xF7, 0xFD, 0xFF, 0xFC, 0x02, 0xFB, 0xFF, 0x00, 
0x00, 0x01, 0x06, 0x04, 0x04, 0x04, 0x09, 0x00, 0x05, 0x05, 0x07, 0x07, 0x01, 0x01, 0xFC, 0xFC, 
0xFF, 0xFF, 0x00, 0xFF, 0x02, 0xFD, 0xFB, 0x01, 0x02, 0x01, 0x0B, 0x09, 0x05, 0x07, 0xF7, 0x02, 
0xFF, 0xFB, 0xFA, 0xF9, 0xF6, 0xF4, 0xF6, 0xF9, 0xFA, 0xF7, 0xFA, 0xFB, 0xFB, 0xF9, 0xFF, 0xFE, 
0xF8, 0xFB, 0xFD, 0x02, 0xF5, 0xEE, 0xEB, 0xEF, 0xF2, 0xF3, 0xEE, 0xF4, 0xF1, 0xEC, 0xF2, 0xF1, 
0xFC, 0x06, 0x07, 0x06, 0x08, 0x03, 0x05, 0x04, 0x04, 0xFE, 0x00, 0x04, 0xFB, 0xF7, 0xF9, 0xF8, 
0x03, 0xFE, 0xF9, 0xFE, 0x01, 0xFF, 0x02, 0x03, 0x07, 0x03, 0x00, 0x03, 0x00, 0x03, 0x01, 0xFE, 
0xF8, 0x02, 0xF4, 0x07, 0x06, 0x06, 0xF0, 0xF3, 0xFA, 0xFE, 0xFE, 0xFC, 0xFB, 0x01, 0x00, 0x00, 
0xF9, 0xF8, 0xF1, 0x12, 0x1A, 0x18, 0x0B, 0x03, 0x07, 0x09, 0x07, 0x05, 0x05, 0x0B, 0x08, 0x09, 
0x06, 0x00, 0xFF, 0xFC, 0xFE, 0xF9, 0xF5, 0xF6, 0xF8, 0xFC, 0x06, 0x00, 0x02, 0xFF, 0xFF, 0x04, 
0x03, 0xFF, 0xFE, 0x01, 0xFE, 0xFE, 0x11, 0x05, 0xF4, 0xF9, 0x03, 0x03, 0xFF, 0xFD, 0xFA, 0x00, 
0xFD, 0xFF, 0xFE, 0xF7, 0xFA, 0xF6, 0x07, 0x00, 0x02, 0xFB, 0xF9, 0x02, 0x05, 0x05, 0x08, 0x03, 
0x04, 0x08, 0x04, 0x05, 0x05, 0x09, 0x00, 0x03, 0xFB, 0xF4, 0xFA, 0xFD, 0x01, 0x02, 0xFB, 0xFD, 
0x02, 0x00, 0x04, 0x01, 0x03, 0x02, 0x05, 0x0D, 0xFE, 0xFC, 0x00, 0x04, 0x06, 0x0B, 0x07, 0xFF, 
0x01, 0xFF, 0xFD, 0xFF, 0xFA, 0xFD, 0xF8, 0xF6, 0xF8, 0x01, 0x00, 0x03, 0x00, 0xFF, 0x03, 0x01, 
0xFF, 0x00, 0x04, 0x07, 0x09, 0x03, 0x05, 0x08, 0x10, 0x0D, 0x03, 0x03, 0xFE, 0xF2, 0xF6, 0xF7, 
0xF9, 0xFB, 0xFE, 0xFE, 0x03, 0xFF, 0xFF, 0xFF, 0xFE, 0x04, 0x05, 0xF8, 0xFA, 0xFD, 0x04, 0x00, 
0xFD, 0xFE, 0xF9, 0xFA, 0x02, 0x00, 0x03, 0x07, 0x04, 0x00, 0xFC, 0xF6, 0x00, 0x05, 0xFD, 0xF3, 
0xFC, 0xFC, 0xFF, 0x04, 0x05, 0xF9, 0xFC, 0xF8, 0xFB, 0xFD, 0xFD, 0x02, 0x06, 0xFB, 0xFB, 0xFE, 
0xF9, 0xF7, 0xFA, 0xF3, 0xF8, 0xFF, 0x00, 0x02, 0x05, 0x02, 0xFD, 0xF6, 0xFB, 0xFB, 0xFF, 0xFB, 
0x03, 0x00, 0xFC, 0x00, 0x00, 0xFA, 0xF9, 0xF9, 0x02, 0x04, 0xFF, 0xFE, 0xFA, 0xFD, 0xF4, 0xFB, 
0xF2, 0xF8, 0xFF, 0x08, 0x04, 0xFF, 0xFD, 0xFD, 0xFF, 0x05, 0xFD, 0xFC, 0xFE, 0x01, 0x06, 0xFA, 
0xF4, 0xF7, 0xFB, 0xFB, 0xF8, 0xF8, 0x00, 0x03, 0x01, 0xFF, 0xFF, 0xFF, 0x03, 0x06, 0x08, 0x04, 
0x01, 0xFE, 0xF8, 0xFB, 0x03, 0x00, 0x00, 0xF7, 0xFA, 0xFF, 0x01, 0xFF, 0x00, 0xFE, 0xFF, 0xFB, 
0x07, 0xF9, 0x0B, 0x0B, 0x0B, 0x0C, 0x08, 0x03, 0x05, 0x07, 0x01, 0xFD, 0xFB, 0x02, 0x08, 0x07, 
0x06, 0x03, 0x0C, 0x0A, 0x07, 0x05, 0x08, 0x09, 0x0B, 0x15, 0x0E, 0x03, 0xF7, 0xF7, 0xFF, 0xFF, 
0x00, 0xFE, 0xFF, 0x04, 0xFC, 0xFD, 0x05, 0x03, 0x02, 0xF8, 0xFA, 0xF7, 0xF8, 0xFF, 0xFF, 0x03, 
0x03, 0x09, 0x05, 0x0B, 0x09, 0x08, 0x07, 0x08, 0x01, 0xFC, 0x00, 0x05, 0x01, 0xFE, 0xFB, 0x00, 
0x03, 0xFF, 0xFF, 0x03, 0x03, 0xFF, 0x01, 0xFD, 0xFB, 0xF9, 0xF8, 0xF6, 0xF3, 0xEE, 0xF2, 0xF6, 
0xF7, 0xF7, 0xFD, 0x07, 0x05, 0xFF, 0x0C, 0xF4, 0xF6, 0xF8, 0xF8, 0xF8, 0xF6, 0xF5, 0xF6, 0xFE, 
0x03, 0x03, 0x04, 0x0A, 0x06, 0x08, 0x0A, 0x03, 0x02, 0x04, 0x02, 0xFB, 0xFC, 0xFD, 0xFF, 0x01, 
0x01, 0x01, 0x02, 0x04, 0xFC, 0x01, 0x03, 0x05, 0x01, 0x04, 0x01, 0xFF, 0x05, 0x09, 0x07, 0x09, 
0x07, 0x04, 0x03, 0x03, 0x04, 0x04, 0x03, 0x00, 0x04, 0xFE, 0xFE, 0xFD, 0x01, 0x06, 0x04, 0x03, 
0x04, 0x05, 0x02, 0x03, 0x02, 0xFC, 0xFC, 0x02, 0x04, 0x00, 0x08, 0x1E, 0x14, 0x08, 0xFA, 0xF6, 
0xF2, 0x01, 0x04, 0x03, 0xFB, 0xFE, 0xFE, 0x01, 0x01, 0x04, 0x02, 0x09, 0x09, 0x01, 0x04, 0x03, 
0x01, 0xFF, 0xFC, 0xFA, 0xFA, 0xFD, 0x01, 0xFF, 0x00, 0xFA, 0xFF, 0xFB, 0xFD, 0x03, 0xFF, 0xFF, 
